unsigned char autoencoder_temperatura_float_tflite[] = {
  0x1c, 0x00, 0x00, 0x00, 0x54, 0x46, 0x4c, 0x33, 0x14, 0x00, 0x20, 0x00,
  0x1c, 0x00, 0x18, 0x00, 0x14, 0x00, 0x10, 0x00, 0x0c, 0x00, 0x00, 0x00,
  0x08, 0x00, 0x04, 0x00, 0x14, 0x00, 0x00, 0x00, 0x1c, 0x00, 0x00, 0x00,
  0x98, 0x00, 0x00, 0x00, 0xf0, 0x00, 0x00, 0x00, 0x28, 0x11, 0x00, 0x00,
  0x38, 0x11, 0x00, 0x00, 0x9c, 0x17, 0x00, 0x00, 0x03, 0x00, 0x00, 0x00,
  0x01, 0x00, 0x00, 0x00, 0x10, 0x00, 0x00, 0x00, 0x00, 0x00, 0x0a, 0x00,
  0x10, 0x00, 0x0c, 0x00, 0x08, 0x00, 0x04, 0x00, 0x0a, 0x00, 0x00, 0x00,
  0x0c, 0x00, 0x00, 0x00, 0x1c, 0x00, 0x00, 0x00, 0x3c, 0x00, 0x00, 0x00,
  0x0f, 0x00, 0x00, 0x00, 0x73, 0x65, 0x72, 0x76, 0x69, 0x6e, 0x67, 0x5f,
  0x64, 0x65, 0x66, 0x61, 0x75, 0x6c, 0x74, 0x00, 0x01, 0x00, 0x00, 0x00,
  0x04, 0x00, 0x00, 0x00, 0x90, 0xff, 0xff, 0xff, 0x0c, 0x00, 0x00, 0x00,
  0x04, 0x00, 0x00, 0x00, 0x08, 0x00, 0x00, 0x00, 0x6f, 0x75, 0x74, 0x70,
  0x75, 0x74, 0x5f, 0x30, 0x00, 0x00, 0x00, 0x00, 0x01, 0x00, 0x00, 0x00,
  0x04, 0x00, 0x00, 0x00, 0x66, 0xf4, 0xff, 0xff, 0x04, 0x00, 0x00, 0x00,
  0x0c, 0x00, 0x00, 0x00, 0x6b, 0x65, 0x72, 0x61, 0x73, 0x5f, 0x74, 0x65,
  0x6e, 0x73, 0x6f, 0x72, 0x00, 0x00, 0x00, 0x00, 0x02, 0x00, 0x00, 0x00,
  0x34, 0x00, 0x00, 0x00, 0x04, 0x00, 0x00, 0x00, 0xdc, 0xff, 0xff, 0xff,
  0x0f, 0x00, 0x00, 0x00, 0x04, 0x00, 0x00, 0x00, 0x13, 0x00, 0x00, 0x00,
  0x43, 0x4f, 0x4e, 0x56, 0x45, 0x52, 0x53, 0x49, 0x4f, 0x4e, 0x5f, 0x4d,
  0x45, 0x54, 0x41, 0x44, 0x41, 0x54, 0x41, 0x00, 0x08, 0x00, 0x0c, 0x00,
  0x08, 0x00, 0x04, 0x00, 0x08, 0x00, 0x00, 0x00, 0x0e, 0x00, 0x00, 0x00,
  0x04, 0x00, 0x00, 0x00, 0x13, 0x00, 0x00, 0x00, 0x6d, 0x69, 0x6e, 0x5f,
  0x72, 0x75, 0x6e, 0x74, 0x69, 0x6d, 0x65, 0x5f, 0x76, 0x65, 0x72, 0x73,
  0x69, 0x6f, 0x6e, 0x00, 0x10, 0x00, 0x00, 0x00, 0x34, 0x10, 0x00, 0x00,
  0x2c, 0x10, 0x00, 0x00, 0x1c, 0x0b, 0x00, 0x00, 0x04, 0x09, 0x00, 0x00,
  0xf4, 0x06, 0x00, 0x00, 0x94, 0x06, 0x00, 0x00, 0x64, 0x06, 0x00, 0x00,
  0x14, 0x06, 0x00, 0x00, 0xc4, 0x05, 0x00, 0x00, 0xb4, 0x00, 0x00, 0x00,
  0xac, 0x00, 0x00, 0x00, 0xa4, 0x00, 0x00, 0x00, 0x9c, 0x00, 0x00, 0x00,
  0x94, 0x00, 0x00, 0x00, 0x74, 0x00, 0x00, 0x00, 0x04, 0x00, 0x00, 0x00,
  0x22, 0xf5, 0xff, 0xff, 0x04, 0x00, 0x00, 0x00, 0x60, 0x00, 0x00, 0x00,
  0x10, 0x00, 0x00, 0x00, 0x00, 0x00, 0x00, 0x00, 0x08, 0x00, 0x0e, 0x00,
  0x08, 0x00, 0x04, 0x00, 0x08, 0x00, 0x00, 0x00, 0x10, 0x00, 0x00, 0x00,
  0x24, 0x00, 0x00, 0x00, 0x00, 0x00, 0x06, 0x00, 0x08, 0x00, 0x04, 0x00,
  0x06, 0x00, 0x00, 0x00, 0x04, 0x00, 0x00, 0x00, 0x00, 0x00, 0x00, 0x00,
  0x0c, 0x00, 0x18, 0x00, 0x14, 0x00, 0x10, 0x00, 0x0c, 0x00, 0x04, 0x00,
  0x0c, 0x00, 0x00, 0x00, 0xb4, 0x7b, 0xa5, 0x35, 0x89, 0xb9, 0x22, 0xaf,
  0x02, 0x00, 0x00, 0x00, 0x02, 0x00, 0x00, 0x00, 0x04, 0x00, 0x00, 0x00,
  0x06, 0x00, 0x00, 0x00, 0x32, 0x2e, 0x31, 0x39, 0x2e, 0x30, 0x00, 0x00,
  0x8e, 0xf5, 0xff, 0xff, 0x04, 0x00, 0x00, 0x00, 0x10, 0x00, 0x00, 0x00,
  0x31, 0x2e, 0x35, 0x2e, 0x30, 0x00, 0x00, 0x00, 0x00, 0x00, 0x00, 0x00,
  0x00, 0x00, 0x00, 0x00, 0x4c, 0xea, 0xff, 0xff, 0x50, 0xea, 0xff, 0xff,
  0x54, 0xea, 0xff, 0xff, 0x58, 0xea, 0xff, 0xff, 0xba, 0xf5, 0xff, 0xff,
  0x04, 0x00, 0x00, 0x00, 0x00, 0x05, 0x00, 0x00, 0x84, 0x82, 0xaf, 0x3c,
  0x39, 0x3a, 0x89, 0x3d, 0x09, 0x71, 0x82, 0xbc, 0x17, 0x6c, 0x0b, 0xbe,
  0xaf, 0xe2, 0x68, 0xbe, 0x29, 0x18, 0x25, 0x3c, 0xee, 0x8d, 0xaf, 0x3d,
  0x36, 0x80, 0x98, 0xbe, 0xc1, 0xec, 0x50, 0xbc, 0x98, 0x60, 0x51, 0x3e,
  0xd6, 0x11, 0x67, 0xbe, 0x8f, 0x0c, 0x47, 0xbe, 0xab, 0x08, 0xee, 0x3c,
  0xda, 0xd9, 0x55, 0x3d, 0x97, 0xad, 0x64, 0xbe, 0x21, 0x9b, 0x20, 0x3d,
  0x66, 0x1a, 0x65, 0x3e, 0x50, 0xfa, 0x7d, 0x3e, 0xc4, 0xe0, 0xb0, 0xbe,
  0x59, 0x98, 0x78, 0x3e, 0x72, 0x0d, 0xd6, 0x3b, 0x4f, 0x73, 0x0f, 0x3e,
  0xa0, 0xce, 0x26, 0xbe, 0xcb, 0xed, 0x55, 0xbe, 0xe9, 0x05, 0x2d, 0x3e,
  0xe8, 0x81, 0x04, 0x3e, 0x4d, 0xcb, 0x86, 0xbe, 0xa3, 0xfa, 0x59, 0x3e,
  0xcd, 0x34, 0xf2, 0xbe, 0x8b, 0x3c, 0xb9, 0xbe, 0xe7, 0x1d, 0x4c, 0x3c,
  0xeb, 0x11, 0x19, 0x3d, 0x5c, 0x2c, 0x8c, 0x3e, 0xae, 0xa2, 0xa3, 0x3e,
  0x81, 0x37, 0x9e, 0xbe, 0x1a, 0x0b, 0x9b, 0x3e, 0x88, 0x7a, 0xa4, 0xbe,
  0x16, 0xe2, 0xd4, 0x3d, 0x65, 0xe2, 0x93, 0x3e, 0x8f, 0xa1, 0x34, 0x3e,
  0xa8, 0x91, 0x46, 0xbd, 0x7d, 0x1d, 0xb0, 0xbe, 0x67, 0xd6, 0xb4, 0xbe,
  0xa0, 0xfe, 0x17, 0x3e, 0x5a, 0x7f, 0x88, 0xbe, 0xbc, 0xb3, 0x2f, 0x3e,
  0x68, 0x6d, 0x54, 0xbe, 0x1c, 0x6b, 0x86, 0xbe, 0x58, 0xcc, 0xa7, 0xbd,
  0x54, 0xf8, 0x05, 0x3e, 0xb7, 0xce, 0x84, 0xbe, 0x3c, 0x09, 0x01, 0xbe,
  0x02, 0xc0, 0xc7, 0x3e, 0x70, 0x8e, 0x00, 0x3d, 0x80, 0xb3, 0xa9, 0xbe,
  0xf4, 0xef, 0x9e, 0xbe, 0xc8, 0x83, 0x17, 0xbd, 0x7c, 0x1f, 0xc9, 0xbe,
  0xa8, 0x12, 0xc8, 0x3e, 0x68, 0xcc, 0x6d, 0x3e, 0x37, 0xe6, 0xb6, 0xbe,
  0xd8, 0x55, 0x37, 0x3d, 0x3f, 0xa7, 0x55, 0xbe, 0x24, 0xcf, 0x87, 0xbe,
  0xf8, 0x53, 0x56, 0x3d, 0x56, 0xfc, 0xb2, 0xbe, 0x1f, 0xec, 0x6d, 0xbe,
  0xfc, 0xfb, 0x92, 0x3d, 0x18, 0xe1, 0x4a, 0x3e, 0xf6, 0xa9, 0x8e, 0x3e,
  0x67, 0x77, 0x9f, 0xbe, 0xb4, 0x29, 0xa1, 0xbe, 0x6e, 0x7d, 0x8b, 0x3e,
  0x30, 0xc3, 0xe9, 0xbd, 0x65, 0xa4, 0xae, 0xbe, 0x30, 0x76, 0x22, 0x3d,
  0xac, 0x4c, 0x2e, 0xbe, 0xd0, 0x07, 0x41, 0xbd, 0x84, 0x37, 0x3f, 0x3e,
  0xaa, 0x09, 0xba, 0x3e, 0x92, 0x62, 0x7b, 0xbe, 0xb9, 0x02, 0xf3, 0x3e,
  0x16, 0xa2, 0x85, 0x3e, 0xfd, 0xe1, 0x6b, 0xbe, 0x19, 0xb0, 0xe8, 0x3e,
  0xfd, 0x1c, 0xba, 0xbd, 0x6d, 0xb2, 0x08, 0x3e, 0x92, 0xe3, 0x90, 0x3d,
  0x36, 0x2f, 0x46, 0x3e, 0xa1, 0x35, 0xa6, 0x3e, 0xd7, 0x97, 0x59, 0x3e,
  0x82, 0x29, 0x69, 0x3e, 0xf0, 0x32, 0x66, 0x3e, 0xa3, 0xf4, 0x3c, 0x3e,
  0x21, 0xc5, 0x1a, 0x3e, 0xf1, 0x67, 0x20, 0x3e, 0x73, 0x5b, 0x47, 0x3e,
  0x12, 0x19, 0x10, 0xbe, 0xe3, 0xb0, 0x04, 0x3e, 0x45, 0xa9, 0xba, 0x3e,
  0xe3, 0x28, 0x0a, 0x3e, 0x87, 0x0c, 0xd8, 0xbe, 0xd8, 0xf7, 0x21, 0xbe,
  0xa1, 0x3c, 0x9e, 0x3d, 0xe9, 0x35, 0x1d, 0xbc, 0x85, 0xa5, 0x8a, 0x3e,
  0x1a, 0x5a, 0xd3, 0xbd, 0x2f, 0xd4, 0x82, 0x3e, 0x51, 0xe6, 0xe2, 0xbd,
  0x86, 0x66, 0xeb, 0xbd, 0x90, 0x40, 0xed, 0xbe, 0x62, 0x84, 0x07, 0x3d,
  0xc8, 0x77, 0x79, 0x3e, 0x20, 0x9f, 0x45, 0x3c, 0xa0, 0xdc, 0x15, 0x3d,
  0x7f, 0x6b, 0x83, 0x3e, 0xd8, 0x2c, 0xbd, 0xbe, 0x4d, 0x8d, 0xce, 0x3d,
  0x40, 0x61, 0xd1, 0x3d, 0xa7, 0xe6, 0xeb, 0xbe, 0xe4, 0x42, 0xc1, 0xbd,
  0x80, 0x2c, 0xee, 0xbd, 0x48, 0xf9, 0x07, 0xbd, 0x12, 0x0f, 0xab, 0x3e,
  0x4a, 0x57, 0x48, 0xbe, 0x80, 0x5c, 0x60, 0xbc, 0x00, 0xa2, 0x36, 0xbe,
  0xb2, 0x47, 0xb7, 0xbe, 0xf7, 0xf9, 0x91, 0xbe, 0x04, 0x38, 0x06, 0x3e,
  0xf0, 0xee, 0xb0, 0xbc, 0x40, 0x36, 0xb4, 0x3d, 0xe0, 0x06, 0x8a, 0x3e,
  0x3e, 0xe4, 0xc2, 0xbe, 0x66, 0xbb, 0xcd, 0xbe, 0x86, 0x8f, 0xad, 0xbe,
  0x58, 0x0e, 0x99, 0x3d, 0x6e, 0xee, 0x3b, 0xbe, 0x48, 0xbb, 0x1b, 0x3e,
  0x00, 0x6f, 0xa0, 0x3c, 0x9c, 0x0a, 0x9b, 0xbe, 0xd3, 0x78, 0x4e, 0x3e,
  0x40, 0x82, 0x7b, 0x3e, 0xbe, 0x7e, 0x40, 0xbe, 0xc0, 0x2d, 0xee, 0x3e,
  0xf8, 0xf5, 0xb1, 0xbe, 0x72, 0x72, 0x86, 0xbd, 0x6d, 0x54, 0xb4, 0xbd,
  0x6a, 0x9e, 0x53, 0x3d, 0x25, 0x45, 0xfb, 0xbd, 0xc7, 0xdd, 0x4e, 0x3e,
  0x96, 0xad, 0xe2, 0x3d, 0xf2, 0x4d, 0x6c, 0xbe, 0xa3, 0x9f, 0xc5, 0x3e,
  0xec, 0x9d, 0xce, 0x3e, 0x24, 0xb2, 0x23, 0x3c, 0xb2, 0x65, 0xe5, 0xbe,
  0x8a, 0xee, 0x9e, 0xbe, 0x19, 0xe4, 0x47, 0x3e, 0xe3, 0x75, 0x74, 0xbe,
  0x21, 0x56, 0xf3, 0x3d, 0x55, 0x8f, 0x43, 0x3e, 0x86, 0x3f, 0x19, 0xbe,
  0xa1, 0x24, 0xeb, 0xbe, 0xe9, 0x50, 0x81, 0xbe, 0xa2, 0x80, 0x5a, 0xbe,
  0x23, 0x4b, 0x42, 0xbc, 0xae, 0x18, 0xca, 0xbd, 0x23, 0x0c, 0xaa, 0x3e,
  0x3c, 0x6c, 0xda, 0x3e, 0x0c, 0x95, 0xb3, 0xbd, 0x3b, 0xcc, 0x9e, 0x3d,
  0xed, 0xc9, 0xd3, 0x3d, 0x9c, 0x33, 0xf8, 0x3d, 0xb8, 0x30, 0x85, 0x3c,
  0x94, 0x7b, 0x44, 0x3e, 0x34, 0x71, 0x33, 0x3d, 0xe9, 0x31, 0x16, 0xbd,
  0xd9, 0x6b, 0x2a, 0xbe, 0x05, 0x52, 0x2a, 0xbe, 0xa4, 0xd4, 0x4c, 0x3e,
  0xea, 0xae, 0x7d, 0xbe, 0x69, 0xeb, 0x23, 0xbe, 0x00, 0xa7, 0x9a, 0xbb,
  0xe0, 0xcb, 0x7d, 0xbe, 0xdf, 0x52, 0xbc, 0xbe, 0x20, 0x86, 0xbc, 0x3c,
  0x72, 0xd9, 0x09, 0xbe, 0xf2, 0x27, 0x80, 0xbe, 0xdc, 0xb5, 0x7d, 0x3e,
  0xb0, 0xae, 0x93, 0xbe, 0x70, 0xd9, 0xa2, 0x3e, 0xc2, 0x52, 0x81, 0xbe,
  0x96, 0x64, 0xb9, 0xbe, 0xe0, 0xf5, 0x61, 0xbc, 0xf0, 0x01, 0x76, 0x3e,
  0xe5, 0xd9, 0xb5, 0xbe, 0x8b, 0xd0, 0x3e, 0xbe, 0x00, 0xa6, 0x9f, 0xbd,
  0x1f, 0x94, 0x83, 0xbe, 0x3c, 0xe8, 0x5f, 0x38, 0xd0, 0x4e, 0x67, 0xbd,
  0xa6, 0xd9, 0x66, 0xbd, 0xb7, 0x9e, 0x37, 0xbe, 0x9f, 0x0f, 0x22, 0x3d,
  0x12, 0xd7, 0x49, 0x3e, 0x13, 0xfd, 0x4d, 0x3e, 0x89, 0x18, 0x75, 0xbd,
  0xfe, 0x6b, 0x39, 0xbe, 0xc6, 0x0f, 0xe4, 0x3e, 0xeb, 0x61, 0x74, 0xbe,
  0x54, 0xf3, 0x4c, 0x3e, 0xaa, 0x47, 0xae, 0xbe, 0xa2, 0x15, 0xde, 0x3d,
  0x9e, 0x22, 0x04, 0x3e, 0x88, 0x51, 0x15, 0x3f, 0x01, 0xb0, 0x09, 0x3f,
  0x5f, 0xb6, 0x8b, 0x3e, 0xab, 0x3a, 0x7e, 0x3e, 0xfa, 0x34, 0x4a, 0xbe,
  0x98, 0x5f, 0xb6, 0x3e, 0x34, 0x91, 0xb5, 0x3e, 0xe6, 0xa3, 0x57, 0x3e,
  0xd8, 0x48, 0xcc, 0x3e, 0xb5, 0x04, 0x76, 0x3e, 0x70, 0xbf, 0xb4, 0xbe,
  0xd7, 0xc8, 0x78, 0xbe, 0xed, 0x9a, 0xb4, 0x3e, 0xd2, 0x14, 0xe5, 0x3e,
  0xfe, 0xef, 0x73, 0x3e, 0xbc, 0x31, 0x0f, 0xbe, 0x1b, 0x33, 0x1f, 0xbc,
  0xe4, 0xec, 0x54, 0xbe, 0xde, 0x6f, 0xa6, 0x3e, 0x4f, 0xc6, 0xc5, 0x3e,
  0x2b, 0x71, 0x66, 0x3e, 0x24, 0x46, 0x3a, 0xbe, 0x91, 0x8b, 0xd0, 0xbd,
  0xf7, 0x74, 0x3c, 0x3e, 0xe2, 0x31, 0x2f, 0xbe, 0xe0, 0xef, 0x2a, 0x3d,
  0x73, 0xce, 0xbd, 0xbe, 0x96, 0x5d, 0x7c, 0xbd, 0x43, 0x5b, 0x94, 0xbe,
  0x99, 0xfe, 0x21, 0xbe, 0x69, 0x33, 0x3f, 0x3e, 0xa2, 0xe7, 0xa7, 0xbe,
  0xe8, 0xb3, 0xff, 0xbd, 0x77, 0xa4, 0x32, 0xbd, 0x96, 0x7e, 0x2b, 0xbe,
  0x1f, 0x28, 0xba, 0xbe, 0xf0, 0x94, 0x0f, 0x3e, 0x7b, 0x8d, 0x62, 0xbe,
  0xbc, 0x4e, 0xab, 0x3e, 0x3d, 0x55, 0x94, 0x3e, 0xf9, 0xc2, 0xb0, 0xbd,
  0x4b, 0x1d, 0xa6, 0x3e, 0x92, 0x32, 0x11, 0xbe, 0xfb, 0x63, 0x96, 0x3c,
  0x1b, 0x85, 0x16, 0x3e, 0x01, 0x27, 0x6b, 0xbe, 0x98, 0x6e, 0x86, 0x3e,
  0xda, 0xec, 0x3d, 0x3d, 0x0f, 0x6f, 0x55, 0xbe, 0x05, 0xd8, 0x27, 0x3e,
  0x53, 0x1c, 0xc4, 0x3d, 0xa9, 0xc3, 0x81, 0x3e, 0x4d, 0x42, 0x2b, 0xbc,
  0x14, 0xd9, 0x9d, 0xbe, 0x26, 0x9b, 0xac, 0xbe, 0x87, 0x14, 0xb9, 0xbe,
  0x5e, 0xa8, 0xa7, 0x3e, 0x50, 0x52, 0xd5, 0xbe, 0xe8, 0x38, 0x5c, 0x3e,
  0x0e, 0x83, 0x99, 0x3e, 0xd7, 0x20, 0x2f, 0x3e, 0x88, 0x3c, 0x9c, 0x3e,
  0xfb, 0x7a, 0x8d, 0x3e, 0xfd, 0x5e, 0xf1, 0xbe, 0x95, 0x2b, 0x69, 0xbe,
  0x24, 0x7e, 0x9a, 0x3e, 0x69, 0x2e, 0xbf, 0x3e, 0x0a, 0xd3, 0xb3, 0x3e,
  0x0e, 0x45, 0xea, 0xbd, 0x0e, 0x6d, 0x27, 0x3e, 0x95, 0xd3, 0x90, 0x3e,
  0xa1, 0x8b, 0xa2, 0x3e, 0x31, 0x0b, 0x5c, 0x3e, 0x5c, 0x22, 0x63, 0x3e,
  0x08, 0x52, 0x04, 0xbb, 0xed, 0xbb, 0x06, 0x3e, 0x3d, 0x79, 0xdb, 0x3d,
  0x61, 0xec, 0x3a, 0x3e, 0x5a, 0x03, 0x97, 0x3e, 0x96, 0xdb, 0x15, 0xbd,
  0x3d, 0xe4, 0xa2, 0x3d, 0xf6, 0xa6, 0x69, 0xbd, 0x45, 0xab, 0x63, 0x3d,
  0xe1, 0xf2, 0xcd, 0x3d, 0x4e, 0x66, 0xaf, 0x3e, 0x45, 0x56, 0xfa, 0x3c,
  0x93, 0x04, 0x63, 0xbe, 0x97, 0xf2, 0x2b, 0xbe, 0x53, 0x51, 0x17, 0xbe,
  0x9c, 0xa8, 0xeb, 0xbd, 0x62, 0x40, 0x4d, 0x3d, 0x03, 0x3b, 0x1d, 0x3e,
  0x5c, 0x4c, 0xf9, 0xbd, 0xae, 0x56, 0x9a, 0x3e, 0x1c, 0x93, 0xca, 0x3d,
  0xae, 0xb3, 0xe2, 0x3e, 0x90, 0xc8, 0x87, 0x3e, 0xef, 0xde, 0xba, 0x3e,
  0x52, 0xba, 0xb8, 0x3e, 0x2d, 0x0d, 0xa1, 0x3e, 0x7b, 0xff, 0x28, 0x3e,
  0xbe, 0xb4, 0xe4, 0xbd, 0xe4, 0xd4, 0x62, 0x3e, 0x1f, 0x11, 0x5c, 0x3e,
  0xea, 0x02, 0xf3, 0xbd, 0xc6, 0xfa, 0xff, 0xff, 0x04, 0x00, 0x00, 0x00,
  0x40, 0x00, 0x00, 0x00, 0x2f, 0x7c, 0x05, 0xbd, 0xf9, 0x2a, 0x76, 0xbd,
  0x00, 0x00, 0x00, 0x00, 0x00, 0x00, 0x00, 0x00, 0x2d, 0xe5, 0xba, 0x3c,
  0x6c, 0x72, 0x7b, 0xbd, 0x00, 0x00, 0x00, 0x00, 0x57, 0x3f, 0xd1, 0x3e,
  0x78, 0x49, 0xb8, 0x3e, 0x00, 0x00, 0x00, 0x00, 0x77, 0x44, 0x01, 0xbd,
  0x36, 0x62, 0xbc, 0xb8, 0xc4, 0x47, 0x89, 0xbc, 0xd7, 0x5e, 0x4f, 0xbd,
  0xbd, 0x0b, 0x40, 0xbc, 0xeb, 0xa3, 0x47, 0xbc, 0x12, 0xfb, 0xff, 0xff,
  0x04, 0x00, 0x00, 0x00, 0x40, 0x00, 0x00, 0x00, 0x21, 0xf9, 0xa4, 0xbc,
  0x33, 0x97, 0x7d, 0xbb, 0x71, 0x9d, 0x7b, 0x3d, 0xf0, 0x74, 0xce, 0xbc,
  0x07, 0x20, 0x05, 0x3d, 0x74, 0x04, 0x0e, 0x3d, 0x99, 0x73, 0x06, 0xbd,
  0x5d, 0x4f, 0x69, 0xbc, 0x93, 0x31, 0x41, 0x3c, 0x28, 0x05, 0xb6, 0xbc,
  0x53, 0x51, 0x6d, 0xbc, 0x00, 0x00, 0x00, 0x00, 0x60, 0x3d, 0x07, 0x3e,
  0x74, 0x1c, 0x5e, 0x3d, 0xa4, 0xd4, 0xed, 0x3d, 0x81, 0xbb, 0xa1, 0xbd,
  0x5e, 0xfb, 0xff, 0xff, 0x04, 0x00, 0x00, 0x00, 0x20, 0x00, 0x00, 0x00,
  0x63, 0xda, 0xc2, 0x3c, 0x54, 0x75, 0x9d, 0xbc, 0x00, 0x00, 0x00, 0x00,
  0x78, 0xc4, 0x0b, 0xbd, 0x13, 0x95, 0x92, 0xbc, 0x00, 0x00, 0x00, 0x00,
  0x2c, 0x57, 0x3c, 0x3d, 0x00, 0x00, 0x00, 0x00, 0x8a, 0xfb, 0xff, 0xff,
  0x04, 0x00, 0x00, 0x00, 0x50, 0x00, 0x00, 0x00, 0x41, 0x6a, 0x04, 0x3e,
  0x75, 0xbe, 0x22, 0x3e, 0x85, 0x58, 0xda, 0x3d, 0x4e, 0x68, 0xa1, 0x3d,
  0x3d, 0x7d, 0xa8, 0x3d, 0xe2, 0x39, 0xfe, 0x3d, 0x64, 0x08, 0xbf, 0x3d,
  0x72, 0x27, 0x8c, 0x3d, 0x13, 0x2e, 0xe7, 0x3c, 0x7f, 0x9d, 0x8f, 0x3d,
  0xc5, 0x4e, 0xa8, 0x3d, 0xff, 0x86, 0xde, 0x3d, 0xd1, 0x69, 0xaf, 0x3c,
  0xd5, 0x4d, 0x48, 0xbc, 0xb8, 0x90, 0x2d, 0x3e, 0x93, 0x0e, 0x75, 0x3d,
  0x2a, 0x1c, 0xb3, 0x3c, 0xee, 0x45, 0xc7, 0x3a, 0x1b, 0x31, 0xad, 0x3b,
  0xeb, 0x90, 0x57, 0xbc, 0xe6, 0xfb, 0xff, 0xff, 0x04, 0x00, 0x00, 0x00,
  0x00, 0x02, 0x00, 0x00, 0x3a, 0x86, 0xe9, 0xbe, 0x82, 0x69, 0x46, 0xbe,
  0x80, 0x38, 0xb3, 0x3c, 0x70, 0xcd, 0x8c, 0x3e, 0x12, 0xf1, 0x0a, 0x3f,
  0xd4, 0x06, 0xce, 0xbe, 0x90, 0x54, 0x9d, 0x3e, 0xd0, 0x51, 0xf7, 0xbe,
  0xe8, 0x8a, 0x0e, 0xbf, 0x44, 0xb9, 0x96, 0xbe, 0xa0, 0x55, 0x54, 0x3e,
  0x0e, 0x7b, 0xa7, 0x3e, 0x76, 0xb1, 0x8c, 0x3e, 0x44, 0x64, 0x2a, 0xbe,
  0x7f, 0x20, 0xb5, 0x3e, 0xfb, 0xcd, 0x03, 0x3f, 0x41, 0x9c, 0xec, 0xbe,
  0x15, 0xbd, 0x8a, 0xbe, 0x68, 0xab, 0xbb, 0xbe, 0xd0, 0xe8, 0x88, 0xbd,
  0x2b, 0x78, 0x98, 0x3e, 0x2e, 0x44, 0xb2, 0xbe, 0x50, 0x87, 0xa3, 0x3e,
  0x52, 0xc7, 0xcb, 0xbe, 0x58, 0x02, 0x9f, 0xbe, 0x20, 0x84, 0xb3, 0xbd,
  0x38, 0xf3, 0x6c, 0xbe, 0x90, 0xe3, 0x0c, 0x3c, 0xc8, 0xeb, 0x63, 0xbe,
  0xc0, 0xde, 0xbe, 0x3e, 0x67, 0xc2, 0xc6, 0xbe, 0x58, 0x64, 0xf9, 0xbe,
  0x20, 0xe3, 0x43, 0xbe, 0xf0, 0xc5, 0x85, 0x3e, 0xa8, 0xc9, 0xb2, 0xbe,
  0x98, 0x95, 0x8e, 0x3e, 0x30, 0x22, 0xb4, 0xbe, 0xb0, 0xf7, 0x8f, 0xbe,
  0x60, 0x03, 0xab, 0x3e, 0x74, 0x6b, 0xff, 0xbe, 0x90, 0x5c, 0x8f, 0xbd,
  0x28, 0x18, 0x81, 0xbe, 0xfc, 0x0b, 0x8c, 0xbe, 0x70, 0xd4, 0x95, 0xbd,
  0x30, 0x0b, 0x02, 0x3e, 0x20, 0x7d, 0x57, 0x3e, 0x08, 0x69, 0xf1, 0xbe,
  0x6c, 0x1b, 0xd6, 0xbe, 0x1f, 0x85, 0x3f, 0x3d, 0xbf, 0x5f, 0x0b, 0x3e,
  0x48, 0xe4, 0x6c, 0x3e, 0x00, 0x0e, 0x54, 0x3b, 0x5b, 0x19, 0xf2, 0xbe,
  0x00, 0x4c, 0xe4, 0xbe, 0x28, 0x40, 0x97, 0x3e, 0x09, 0x42, 0x1b, 0x3e,
  0xa4, 0xab, 0x0d, 0xbf, 0x70, 0xae, 0x80, 0x3d, 0x3b, 0x10, 0xf0, 0xbe,
  0xde, 0x8a, 0xab, 0xbd, 0x5d, 0x30, 0x3a, 0x3e, 0x2b, 0x46, 0x99, 0xbe,
  0x4e, 0x13, 0xe2, 0x3e, 0x2b, 0x9b, 0x2e, 0x3e, 0x7f, 0x72, 0xab, 0xbb,
  0x75, 0x48, 0xb5, 0x3e, 0xe8, 0xfc, 0xe4, 0x3e, 0x28, 0xf7, 0xde, 0xbe,
  0xc6, 0xcc, 0xdd, 0xbe, 0x42, 0x58, 0x5f, 0xbd, 0x80, 0xf8, 0x7f, 0x3c,
  0xbb, 0xc4, 0x4f, 0xbe, 0xa6, 0x28, 0x6b, 0x3e, 0xc4, 0x78, 0xf0, 0x3e,
  0xef, 0xee, 0x80, 0x3e, 0x02, 0xeb, 0x15, 0xbe, 0x06, 0x03, 0x20, 0x3e,
  0xe1, 0x58, 0xe1, 0x3e, 0xdd, 0x43, 0x5e, 0xbc, 0x67, 0x0b, 0x69, 0xbd,
  0x48, 0x08, 0xa4, 0x3e, 0x24, 0x6f, 0xe1, 0xbe, 0x40, 0xfb, 0xb6, 0x3d,
  0x8c, 0x3c, 0x95, 0x3e, 0x00, 0x56, 0x92, 0xbd, 0xa0, 0xab, 0x60, 0x3d,
  0x7c, 0x71, 0x83, 0x3e, 0x50, 0x94, 0xe3, 0xbe, 0x20, 0xc6, 0x77, 0xbe,
  0xa4, 0x6f, 0x99, 0xbe, 0x30, 0xd9, 0xed, 0xbe, 0x78, 0x39, 0x97, 0xbe,
  0xc8, 0xd8, 0xdf, 0xbe, 0x90, 0xe4, 0x11, 0x3e, 0xb8, 0x0b, 0xd2, 0xbe,
  0xd8, 0xbd, 0x36, 0xbe, 0xdd, 0x99, 0x20, 0xbc, 0xa2, 0x2e, 0x94, 0x3b,
  0x64, 0xa7, 0xb8, 0xbe, 0xc0, 0x0e, 0x82, 0xbe, 0x76, 0xe3, 0xe5, 0x3e,
  0x1f, 0x77, 0xbf, 0xbe, 0x40, 0x20, 0xdf, 0x3e, 0xc5, 0x05, 0xc2, 0xbe,
  0x8d, 0x9a, 0x66, 0x3e, 0xdc, 0x11, 0xf4, 0x3e, 0x3a, 0xde, 0x23, 0x3f,
  0x5c, 0x50, 0xa2, 0xbe, 0x10, 0x83, 0x01, 0x3e, 0x2c, 0xa2, 0x8b, 0x3d,
  0xf5, 0x9b, 0x8e, 0xbe, 0x80, 0x72, 0x21, 0x3e, 0x1c, 0x68, 0xef, 0x3e,
  0x80, 0x9d, 0xd0, 0xbc, 0x60, 0x81, 0x15, 0x3d, 0xc0, 0x5a, 0xa8, 0x3d,
  0x28, 0xd8, 0xa6, 0xbe, 0x50, 0x1a, 0xb7, 0xbe, 0x88, 0x51, 0x2b, 0x3e,
  0x14, 0x97, 0x8e, 0x3e, 0xec, 0x03, 0xbd, 0xbe, 0x8c, 0x08, 0x8a, 0x3e,
  0x28, 0x43, 0x6e, 0xbe, 0x40, 0x4a, 0x0e, 0xbe, 0x80, 0xa0, 0x62, 0xbe,
  0x1c, 0xd3, 0x8c, 0xbe, 0x00, 0xf0, 0xef, 0xbd, 0xa0, 0x4c, 0x53, 0xbd,
  0xf2, 0xfd, 0xff, 0xff, 0x04, 0x00, 0x00, 0x00, 0x00, 0x02, 0x00, 0x00,
  0x32, 0x39, 0xd9, 0xbe, 0xf5, 0x8d, 0x3a, 0x3d, 0x90, 0x41, 0xa7, 0xbd,
  0x3d, 0xdb, 0xdc, 0xbe, 0x96, 0x33, 0x6a, 0x3e, 0x14, 0x3d, 0xca, 0x3e,
  0x10, 0x22, 0xb8, 0x3d, 0xcc, 0x59, 0x85, 0xbe, 0x51, 0xfd, 0xbe, 0x3d,
  0xdd, 0xfb, 0xed, 0xbe, 0x20, 0xdb, 0xf8, 0x3d, 0x74, 0x55, 0x8d, 0x3d,
  0xe2, 0x3d, 0xac, 0x3e, 0x20, 0xcc, 0xf4, 0x3d, 0xcf, 0x15, 0xc6, 0x3e,
  0xb4, 0xb5, 0xc3, 0x3e, 0xa4, 0x85, 0x74, 0x3e, 0xe8, 0x47, 0x70, 0xbe,
  0x70, 0x23, 0xf9, 0xbe, 0x75, 0x30, 0x28, 0x3e, 0x43, 0x88, 0xd5, 0xbe,
  0xb0, 0xd0, 0xa6, 0x3e, 0xee, 0x7b, 0x80, 0xbe, 0x80, 0x54, 0x22, 0xbe,
  0x9b, 0x1c, 0x13, 0xbe, 0xb7, 0xea, 0xe1, 0x3e, 0xb8, 0xbe, 0x7a, 0xbe,
  0xdb, 0x88, 0x60, 0x3e, 0x9d, 0x62, 0x5a, 0x3e, 0xbc, 0x7e, 0x86, 0xbe,
  0x63, 0x09, 0x52, 0xbe, 0xf8, 0x8d, 0x2f, 0x3e, 0xdd, 0x8d, 0x36, 0xbe,
  0x3b, 0x9d, 0xc9, 0x3e, 0xc8, 0xbf, 0x48, 0xbe, 0x77, 0xe6, 0xb4, 0x3d,
  0x73, 0x16, 0x78, 0x3e, 0x78, 0xde, 0xff, 0x3e, 0xc0, 0xc3, 0xa5, 0x3e,
  0x7c, 0x44, 0xb2, 0x3e, 0x1d, 0x8c, 0xd7, 0x3e, 0x2a, 0xd6, 0x99, 0xbe,
  0x04, 0xd1, 0x81, 0xbe, 0x80, 0x22, 0xf7, 0x3e, 0x4d, 0xd8, 0xb9, 0xbe,
  0x00, 0x4b, 0x96, 0xbd, 0x0b, 0x8f, 0xe4, 0xbe, 0x80, 0x31, 0x74, 0xbe,
  0x84, 0x12, 0xff, 0xbd, 0x80, 0xcb, 0x2c, 0xbe, 0x40, 0x09, 0x42, 0xbe,
  0x94, 0x3a, 0xa8, 0xbe, 0xc0, 0xa9, 0xfb, 0xbc, 0x38, 0xad, 0x6d, 0x3e,
  0xd1, 0x69, 0xb6, 0x3e, 0x18, 0x2e, 0x3b, 0x3e, 0xd7, 0x69, 0xa4, 0xbe,
  0xe0, 0xd3, 0x94, 0x3d, 0xe8, 0x13, 0x31, 0x3e, 0x4a, 0xa6, 0xbf, 0x3e,
  0x3d, 0x0b, 0xfd, 0xbc, 0x2c, 0xa0, 0x80, 0x3e, 0xd8, 0x03, 0x92, 0xbe,
  0x30, 0x86, 0xe1, 0x3e, 0xf5, 0x17, 0x63, 0xbe, 0xa8, 0x92, 0xe6, 0xbe,
  0x68, 0xdb, 0x03, 0xbe, 0xe1, 0x15, 0xb0, 0x3d, 0xbd, 0x2c, 0x94, 0xbc,
  0x70, 0xcf, 0x4f, 0xbe, 0xa0, 0xdf, 0x07, 0xbe, 0xc0, 0xbf, 0x9e, 0x3c,
  0x3c, 0x38, 0xd8, 0xbe, 0x5d, 0x96, 0x50, 0x3e, 0x20, 0x30, 0xcc, 0x3d,
  0x4c, 0x4a, 0x56, 0x3e, 0x14, 0xd1, 0xe5, 0x3e, 0xd8, 0x2f, 0xb4, 0xbe,
  0x44, 0xc0, 0xd1, 0xbe, 0x1c, 0x9e, 0xb4, 0xbe, 0x82, 0xe2, 0x40, 0x3e,
  0x93, 0x27, 0xe9, 0xbd, 0x68, 0xb3, 0x53, 0xbe, 0x18, 0x82, 0x40, 0x3e,
  0x89, 0x39, 0x87, 0xbe, 0x08, 0x1b, 0x44, 0xbe, 0xed, 0xc3, 0x1b, 0x3e,
  0xc8, 0xbf, 0x16, 0xbe, 0xa8, 0xde, 0xea, 0xbe, 0xe0, 0x19, 0x43, 0xbe,
  0x78, 0xd2, 0xfc, 0xbe, 0x88, 0x67, 0x7a, 0xbe, 0x38, 0x00, 0xd2, 0xbe,
  0x64, 0xb8, 0xe4, 0xbe, 0x38, 0x96, 0xe2, 0xbe, 0x70, 0xaf, 0xa3, 0xbe,
  0x2d, 0x95, 0x83, 0x3e, 0x51, 0xb6, 0x39, 0x3c, 0xd8, 0x9a, 0x4a, 0xbe,
  0xc9, 0x16, 0x0e, 0xbe, 0x65, 0x3e, 0x87, 0x3e, 0xa4, 0xf9, 0xb9, 0x3e,
  0xca, 0x3d, 0x03, 0x3e, 0xf0, 0x81, 0x47, 0xbe, 0xea, 0xa7, 0x17, 0x3e,
  0xa4, 0x50, 0xf0, 0x3e, 0xd0, 0x03, 0xdd, 0x3d, 0xcd, 0x52, 0xbe, 0xbd,
  0x86, 0x2d, 0xba, 0xbe, 0x48, 0x93, 0x43, 0xbe, 0x81, 0x0a, 0xee, 0xbc,
  0x5c, 0x0d, 0xf4, 0x3e, 0x6d, 0xac, 0x01, 0x3e, 0x10, 0x04, 0xd3, 0x3d,
  0x20, 0x7c, 0xf2, 0xbe, 0x31, 0x8e, 0xbf, 0xbe, 0x3b, 0x94, 0xa3, 0x3d,
  0x78, 0x85, 0x64, 0x3e, 0x5d, 0x15, 0x31, 0xbe, 0xc8, 0xf1, 0x3d, 0xbe,
  0x82, 0x68, 0xbd, 0x3d, 0x2b, 0x17, 0x6f, 0xbd, 0x14, 0x74, 0xd5, 0x3e,
  0xa9, 0x29, 0xa4, 0xbe, 0xe2, 0xb9, 0x2e, 0xbe, 0xd4, 0xea, 0x82, 0x3e,
  0xbd, 0x4f, 0xcf, 0x3d, 0xa8, 0x5d, 0xcf, 0x3e, 0x00, 0x00, 0x06, 0x00,
  0x08, 0x00, 0x04, 0x00, 0x06, 0x00, 0x00, 0x00, 0x04, 0x00, 0x00, 0x00,
  0x00, 0x05, 0x00, 0x00, 0x04, 0x34, 0xa6, 0x3e, 0xa7, 0x0b, 0xb9, 0xbe,
  0xea, 0x67, 0x99, 0xbe, 0xa4, 0xec, 0xa6, 0xbe, 0x1d, 0x88, 0xb5, 0x3e,
  0x11, 0x5f, 0x9e, 0x3e, 0xd3, 0x88, 0xed, 0xbe, 0x2a, 0x12, 0xd3, 0x3e,
  0x88, 0x7b, 0x83, 0x3e, 0x0f, 0xa8, 0x55, 0x3e, 0x4d, 0x67, 0x93, 0x3e,
  0x90, 0x81, 0x5e, 0x3d, 0x09, 0x00, 0xc0, 0x3e, 0x0d, 0x49, 0xda, 0x3c,
  0xc8, 0xe6, 0x69, 0x3e, 0x89, 0xa6, 0x4f, 0xbe, 0x75, 0x43, 0x42, 0xbe,
  0x22, 0x34, 0xdf, 0x3d, 0x79, 0xf3, 0xf3, 0x3e, 0x4b, 0xe0, 0x98, 0xbe,
  0x0d, 0x89, 0x98, 0x3e, 0x67, 0x43, 0xcd, 0x3c, 0x07, 0x77, 0x00, 0xbe,
  0xe2, 0x0a, 0xbc, 0xbe, 0x69, 0x99, 0x19, 0x3e, 0xfd, 0xbe, 0x5c, 0x3e,
  0xb3, 0xe4, 0xcf, 0xbc, 0x84, 0xb3, 0xe9, 0xbd, 0x4a, 0xb1, 0x44, 0x3d,
  0xe5, 0xa8, 0xf0, 0xbd, 0x57, 0x29, 0x6b, 0x3e, 0xd6, 0xf2, 0x0f, 0x3d,
  0x3b, 0x08, 0xbe, 0xbe, 0xab, 0x39, 0x3c, 0xbe, 0xdd, 0x67, 0xdc, 0x3e,
  0xa8, 0xc8, 0x53, 0xbe, 0x41, 0x2c, 0xf1, 0x3d, 0xe6, 0x31, 0x14, 0x3d,
  0x9d, 0x09, 0x13, 0x3e, 0xf8, 0xd8, 0x62, 0x3e, 0x07, 0xcd, 0xb2, 0xbe,
  0xff, 0x70, 0x8e, 0x3e, 0x14, 0x4a, 0x64, 0x3d, 0x38, 0xa3, 0x40, 0x3e,
  0x42, 0xe8, 0x92, 0x3d, 0x6c, 0x5b, 0xc9, 0x3e, 0xc6, 0xaa, 0x8f, 0x3e,
  0x45, 0x70, 0x48, 0xbc, 0x08, 0x4e, 0xf7, 0x3c, 0x2c, 0xe5, 0x26, 0x3e,
  0x64, 0x92, 0xd1, 0x3e, 0xa3, 0x90, 0x0c, 0xbd, 0xb0, 0x77, 0x69, 0xbe,
  0x8c, 0x59, 0xc5, 0x3e, 0x05, 0xd8, 0xd2, 0xbd, 0x7e, 0x14, 0x9c, 0x3e,
  0x99, 0xbb, 0x5e, 0x3e, 0x72, 0xdc, 0x9c, 0xbc, 0xc2, 0x4e, 0x91, 0xbe,
  0x4a, 0x40, 0xcb, 0x3e, 0xcf, 0x00, 0x11, 0xbe, 0x4a, 0xa9, 0x93, 0x3e,
  0x0f, 0xc2, 0xbd, 0x3d, 0xa7, 0xf1, 0xc2, 0xbd, 0x8d, 0x99, 0x63, 0xbe,
  0xe1, 0x76, 0x76, 0x3e, 0xe2, 0xa2, 0xb6, 0x3d, 0xf0, 0x21, 0x65, 0x3a,
  0x09, 0x48, 0xbc, 0x3e, 0x9f, 0xaf, 0x93, 0x3e, 0x87, 0xf6, 0x87, 0xbe,
  0x53, 0x0c, 0x3a, 0xbe, 0x1d, 0xdf, 0x86, 0xbe, 0x25, 0xf6, 0x36, 0xbe,
  0x7f, 0x0a, 0x76, 0xbe, 0xd8, 0x86, 0xed, 0xbd, 0x53, 0x25, 0x53, 0x3d,
  0xc4, 0x18, 0x91, 0x3e, 0x40, 0x87, 0xba, 0x3e, 0x2c, 0x7b, 0xa5, 0xbd,
  0xea, 0x4e, 0xaa, 0xbd, 0x05, 0xef, 0xc4, 0x3d, 0x62, 0x85, 0x2d, 0xbe,
  0x71, 0x2c, 0x95, 0xbe, 0xe1, 0x79, 0xc7, 0x3e, 0x0e, 0x21, 0x26, 0x3e,
  0x59, 0xbe, 0x68, 0xbe, 0x18, 0x09, 0x8e, 0xbe, 0x55, 0x58, 0x55, 0xbe,
  0xae, 0x91, 0xbe, 0xbd, 0xc9, 0xf5, 0x51, 0x3e, 0x08, 0xea, 0x5b, 0x3e,
  0xc8, 0x90, 0x5b, 0x3e, 0x49, 0xea, 0x64, 0x3e, 0xa0, 0x3f, 0x38, 0xbd,
  0x40, 0x97, 0xa3, 0x3e, 0x03, 0x5a, 0xa3, 0x3d, 0x95, 0x5f, 0xe3, 0x3e,
  0x98, 0xf9, 0xa7, 0x3d, 0xed, 0x9d, 0x8e, 0xbe, 0x3c, 0xb6, 0x3e, 0x3e,
  0x46, 0x64, 0xf7, 0x3d, 0xce, 0x9d, 0x8a, 0x3d, 0x0a, 0x11, 0x4a, 0x3e,
  0x45, 0xae, 0x00, 0x3d, 0x15, 0x41, 0x88, 0xbc, 0x98, 0x71, 0x8e, 0xbe,
  0xde, 0xc9, 0x89, 0x3e, 0x0b, 0x78, 0x48, 0x3e, 0x50, 0xa0, 0x0e, 0x3e,
  0x5a, 0x35, 0x0d, 0x3e, 0xac, 0x5e, 0xdc, 0x3e, 0x1a, 0x5a, 0x3a, 0xbd,
  0xd3, 0x4e, 0x5c, 0xbd, 0xbb, 0xef, 0x05, 0x3e, 0x2f, 0x17, 0x92, 0xbe,
  0xe8, 0x89, 0xf1, 0x3d, 0x84, 0x99, 0x82, 0x3e, 0x54, 0xa8, 0x67, 0xbd,
  0xcf, 0x63, 0x59, 0x3e, 0xe7, 0x27, 0x07, 0xbe, 0xff, 0xdc, 0x85, 0xbe,
  0x75, 0xef, 0xe2, 0x3e, 0x50, 0xbf, 0x2d, 0x3e, 0x43, 0x97, 0x38, 0xbe,
  0x4c, 0xdd, 0xab, 0x3e, 0xe3, 0x4d, 0x3b, 0x3e, 0x28, 0xc7, 0x65, 0xbe,
  0x08, 0x06, 0x4a, 0xbe, 0x03, 0x43, 0x09, 0xbd, 0xd7, 0x41, 0x69, 0x3e,
  0x6c, 0x76, 0x36, 0xbe, 0xc5, 0x4f, 0xaf, 0x3c, 0xe7, 0x6c, 0x82, 0x3e,
  0xc9, 0xd5, 0xe0, 0xbd, 0x0e, 0x78, 0xa7, 0xbe, 0xb5, 0x37, 0x4e, 0x3e,
  0x27, 0xaf, 0x92, 0xbe, 0x0a, 0xec, 0x7f, 0x3e, 0xbc, 0xe4, 0x0c, 0x3e,
  0xee, 0x79, 0x80, 0x3d, 0x15, 0x61, 0x7c, 0x3d, 0x5c, 0xe9, 0x0a, 0x3e,
  0xc4, 0x02, 0x1a, 0x3d, 0xb8, 0x5c, 0x4c, 0xbe, 0x46, 0xa5, 0x9d, 0x3e,
  0xb9, 0xc3, 0x1c, 0xbe, 0xb8, 0x67, 0x7e, 0x3e, 0x1c, 0xf5, 0x70, 0x3e,
  0x9d, 0xd1, 0xd5, 0xbd, 0x53, 0x97, 0xa4, 0xbe, 0x75, 0xb2, 0x6e, 0x3e,
  0x6b, 0x41, 0xce, 0x3e, 0xa4, 0x4d, 0xaa, 0xbb, 0x34, 0xa6, 0x9d, 0x3e,
  0x0c, 0xe0, 0x15, 0x3e, 0x1d, 0x78, 0x54, 0x3e, 0x9e, 0x98, 0x57, 0x3e,
  0xb9, 0xde, 0x30, 0xbd, 0x5a, 0x80, 0xc6, 0x3e, 0xe2, 0x6e, 0xa5, 0x3e,
  0x5c, 0xaf, 0x58, 0x3d, 0xc5, 0xff, 0xc5, 0x3e, 0xda, 0x18, 0x2c, 0x3e,
  0x0a, 0xe2, 0x68, 0xbe, 0xa4, 0x2b, 0x6f, 0x3e, 0x71, 0x0b, 0xf7, 0x3e,
  0x9e, 0xf0, 0xe5, 0xbd, 0x7a, 0x0c, 0x21, 0xbe, 0x2f, 0xc3, 0xbe, 0xbe,
  0x3f, 0x6b, 0xba, 0x3e, 0xc6, 0x7b, 0xca, 0xbe, 0x5f, 0x88, 0x9d, 0x3d,
  0x74, 0xdd, 0x11, 0xbe, 0x95, 0x83, 0x51, 0xbe, 0x6d, 0x9b, 0x5f, 0xbe,
  0x51, 0xdf, 0x21, 0x3c, 0x86, 0x05, 0x81, 0x3e, 0xe6, 0x71, 0x26, 0xbd,
  0xca, 0xcc, 0xb6, 0xbe, 0x27, 0xc3, 0xb5, 0xbe, 0xbf, 0xa8, 0x2e, 0xbe,
  0x15, 0xb7, 0xa9, 0x3e, 0x8e, 0xfa, 0x97, 0x3d, 0x6b, 0xb7, 0xd1, 0x3e,
  0xfe, 0x2b, 0x43, 0x3e, 0xed, 0xd6, 0x19, 0x3e, 0x70, 0x04, 0xcc, 0x3d,
  0x5e, 0x3f, 0xde, 0x3d, 0xc2, 0x01, 0xcb, 0x3e, 0x96, 0x2e, 0xee, 0x3e,
  0xba, 0x88, 0x43, 0x3e, 0x44, 0x15, 0x7f, 0xbc, 0x55, 0xfb, 0x81, 0x3e,
  0xba, 0x10, 0x15, 0xbe, 0x4d, 0x65, 0x89, 0xbe, 0x5d, 0x5f, 0xaa, 0x3e,
  0x81, 0x42, 0xb1, 0x3e, 0x34, 0x8e, 0x06, 0x3f, 0x25, 0xc5, 0x86, 0x3e,
  0x45, 0x6b, 0xa8, 0xbe, 0xcd, 0x5a, 0x9d, 0x3e, 0x56, 0x24, 0x2b, 0xbe,
  0x21, 0xa2, 0xbf, 0xbe, 0xca, 0xee, 0x20, 0x3e, 0x0d, 0x30, 0xca, 0x3e,
  0x43, 0x88, 0x01, 0x3c, 0x9c, 0x5a, 0x6f, 0x3e, 0x8c, 0xc5, 0x13, 0x3e,
  0xd6, 0x9a, 0xb2, 0x3e, 0xeb, 0xc4, 0x22, 0x3e, 0x2e, 0xd7, 0x89, 0x3e,
  0x5b, 0xdf, 0x69, 0xbe, 0x23, 0xa9, 0x34, 0x3e, 0xb0, 0x85, 0xe2, 0x3e,
  0x0e, 0x42, 0x4f, 0x3c, 0x52, 0xdc, 0x06, 0xbe, 0xac, 0xba, 0xba, 0x3e,
  0x26, 0x5b, 0x8a, 0xbe, 0xc8, 0x14, 0xd6, 0xbd, 0x75, 0xaf, 0x1d, 0x3d,
  0x6c, 0x38, 0x1d, 0x3e, 0xd2, 0x64, 0xd1, 0x3e, 0x15, 0xb4, 0x20, 0x3e,
  0xf7, 0x14, 0xaf, 0xbe, 0xe2, 0xd8, 0xd8, 0xbd, 0xb6, 0xd5, 0x4a, 0x3c,
  0x03, 0xcb, 0x2a, 0xbe, 0xc4, 0x25, 0x58, 0xbe, 0xeb, 0xf8, 0x15, 0x3e,
  0x97, 0x23, 0xf2, 0x3e, 0xf9, 0x5e, 0xbc, 0xbe, 0x99, 0x83, 0xc3, 0x3e,
  0xa5, 0x1b, 0xd8, 0xbd, 0xb1, 0x8b, 0x11, 0xbd, 0x98, 0x22, 0x68, 0x3e,
  0xbb, 0x69, 0xec, 0x3e, 0xa5, 0x45, 0xa8, 0xbc, 0x61, 0x84, 0x19, 0xbb,
  0x54, 0x00, 0xa7, 0xbc, 0x85, 0x43, 0xf7, 0x3d, 0xb1, 0x93, 0xfc, 0x3e,
  0x5b, 0xfc, 0x9c, 0x3e, 0x49, 0xda, 0xa4, 0x3e, 0xa4, 0xa9, 0x16, 0x3e,
  0x5f, 0x11, 0x6a, 0xbe, 0x95, 0x64, 0x47, 0x3d, 0x10, 0xf0, 0x15, 0x3e,
  0x12, 0xff, 0x7d, 0xbe, 0x8b, 0x4a, 0x7d, 0xbe, 0x43, 0xcf, 0xda, 0x3e,
  0x00, 0x99, 0x70, 0x3b, 0xef, 0x22, 0x2c, 0xbd, 0x95, 0xc3, 0xb0, 0x3e,
  0xe5, 0x2f, 0x70, 0xbd, 0x6f, 0x52, 0xfb, 0xbd, 0x73, 0x9d, 0x2e, 0x3e,
  0x72, 0xb6, 0xf1, 0x3e, 0x44, 0xb0, 0x99, 0xbe, 0xd8, 0x18, 0xda, 0x3e,
  0x0e, 0xa1, 0x3a, 0xbe, 0x67, 0x34, 0x3f, 0xbe, 0x8d, 0x01, 0x44, 0x3e,
  0x43, 0xf9, 0xb1, 0xbd, 0x8b, 0x33, 0x7b, 0x3e, 0x30, 0xa5, 0x7e, 0xbd,
  0xbb, 0x64, 0xf9, 0x3e, 0x28, 0x5d, 0x77, 0x3e, 0x4d, 0x4c, 0xbb, 0x3e,
  0x00, 0xa9, 0x36, 0xbe, 0x8f, 0x04, 0x87, 0x3e, 0x07, 0x40, 0x1d, 0x3e,
  0xbd, 0xf9, 0xc6, 0x3e, 0x23, 0xdc, 0xd5, 0x3d, 0x16, 0x39, 0xbb, 0x3d,
  0x2d, 0x60, 0xa3, 0xbe, 0x1a, 0x6a, 0x9c, 0xbd, 0x19, 0xd3, 0xfc, 0xbd,
  0xb6, 0x72, 0x06, 0x3e, 0x37, 0x90, 0x4e, 0xbe, 0x0e, 0xe8, 0x1d, 0xbe,
  0x43, 0x72, 0x3e, 0xbe, 0x17, 0x8b, 0x92, 0x3e, 0xae, 0x17, 0xa8, 0x3e,
  0x4b, 0xeb, 0x6c, 0x3e, 0x41, 0x66, 0xb9, 0x3e, 0xa3, 0xd9, 0xb5, 0x3d,
  0xa3, 0x3c, 0x12, 0xbd, 0x88, 0x58, 0xb6, 0x3c, 0x5e, 0xbd, 0xcf, 0x3c,
  0x00, 0xe4, 0xcd, 0xbd, 0x85, 0x26, 0xc2, 0x3e, 0x60, 0x3e, 0xaa, 0xbe,
  0xef, 0x03, 0xa5, 0x3e, 0xc8, 0xef, 0x25, 0x3e, 0xbf, 0xda, 0x34, 0xbe,
  0x1c, 0xfb, 0xa1, 0xbc, 0x16, 0x7c, 0x9f, 0xbc, 0xce, 0xd5, 0xf2, 0x3e,
  0x92, 0xff, 0x07, 0xbe, 0x35, 0xe6, 0x60, 0xbc, 0x35, 0x7d, 0x9d, 0x3e,
  0xb1, 0xc4, 0x1e, 0xbe, 0x7e, 0xe0, 0x00, 0x3e, 0x8f, 0x7b, 0x69, 0xbc,
  0xe9, 0xc2, 0xd2, 0x3e, 0x17, 0x7b, 0x84, 0x3d, 0xfc, 0xda, 0xb0, 0xbe,
  0x02, 0x6f, 0x13, 0xbd, 0x1c, 0xb2, 0xea, 0x3e, 0xce, 0x26, 0x7f, 0xbb,
  0x9b, 0xaf, 0xad, 0xbe, 0xd3, 0x67, 0x77, 0xbd, 0xda, 0x78, 0x3b, 0x3e,
  0xf5, 0xbd, 0x51, 0x3e, 0xc8, 0x84, 0x31, 0x3d, 0xaa, 0x58, 0xeb, 0x3d,
  0x4b, 0x8c, 0x79, 0xbe, 0x4b, 0xe0, 0x9a, 0xbe, 0x82, 0x2a, 0x8b, 0xbd,
  0xb4, 0xf9, 0xff, 0xff, 0xb8, 0xf9, 0xff, 0xff, 0x0f, 0x00, 0x00, 0x00,
  0x4d, 0x4c, 0x49, 0x52, 0x20, 0x43, 0x6f, 0x6e, 0x76, 0x65, 0x72, 0x74,
  0x65, 0x64, 0x2e, 0x00, 0x01, 0x00, 0x00, 0x00, 0x14, 0x00, 0x00, 0x00,
  0x00, 0x00, 0x0e, 0x00, 0x18, 0x00, 0x14, 0x00, 0x10, 0x00, 0x0c, 0x00,
  0x08, 0x00, 0x04, 0x00, 0x0e, 0x00, 0x00, 0x00, 0x14, 0x00, 0x00, 0x00,
  0x1c, 0x00, 0x00, 0x00, 0x20, 0x01, 0x00, 0x00, 0x24, 0x01, 0x00, 0x00,
  0x28, 0x01, 0x00, 0x00, 0x04, 0x00, 0x00, 0x00, 0x6d, 0x61, 0x69, 0x6e,
  0x00, 0x00, 0x00, 0x00, 0x04, 0x00, 0x00, 0x00, 0xc8, 0x00, 0x00, 0x00,
  0x80, 0x00, 0x00, 0x00, 0x38, 0x00, 0x00, 0x00, 0x04, 0x00, 0x00, 0x00,
  0x9a, 0xff, 0xff, 0xff, 0x10, 0x00, 0x00, 0x00, 0x00, 0x00, 0x00, 0x08,
  0x0c, 0x00, 0x00, 0x00, 0x10, 0x00, 0x00, 0x00, 0x34, 0xfa, 0xff, 0xff,
  0x01, 0x00, 0x00, 0x00, 0x0c, 0x00, 0x00, 0x00, 0x03, 0x00, 0x00, 0x00,
  0x0b, 0x00, 0x00, 0x00, 0x01, 0x00, 0x00, 0x00, 0x04, 0x00, 0x00, 0x00,
  0xca, 0xff, 0xff, 0xff, 0x10, 0x00, 0x00, 0x00, 0x00, 0x00, 0x00, 0x08,
  0x10, 0x00, 0x00, 0x00, 0x14, 0x00, 0x00, 0x00, 0x76, 0xff, 0xff, 0xff,
  0x00, 0x00, 0x00, 0x01, 0x01, 0x00, 0x00, 0x00, 0x0b, 0x00, 0x00, 0x00,
  0x03, 0x00, 0x00, 0x00, 0x0a, 0x00, 0x00, 0x00, 0x02, 0x00, 0x00, 0x00,
  0x06, 0x00, 0x00, 0x00, 0x00, 0x00, 0x0e, 0x00, 0x14, 0x00, 0x00, 0x00,
  0x10, 0x00, 0x0c, 0x00, 0x0b, 0x00, 0x04, 0x00, 0x0e, 0x00, 0x00, 0x00,
  0x10, 0x00, 0x00, 0x00, 0x00, 0x00, 0x00, 0x08, 0x10, 0x00, 0x00, 0x00,
  0x14, 0x00, 0x00, 0x00, 0xba, 0xff, 0xff, 0xff, 0x00, 0x00, 0x00, 0x01,
  0x01, 0x00, 0x00, 0x00, 0x0a, 0x00, 0x00, 0x00, 0x03, 0x00, 0x00, 0x00,
  0x09, 0x00, 0x00, 0x00, 0x03, 0x00, 0x00, 0x00, 0x05, 0x00, 0x00, 0x00,
  0x00, 0x00, 0x0e, 0x00, 0x16, 0x00, 0x00, 0x00, 0x10, 0x00, 0x0c, 0x00,
  0x0b, 0x00, 0x04, 0x00, 0x0e, 0x00, 0x00, 0x00, 0x18, 0x00, 0x00, 0x00,
  0x00, 0x00, 0x00, 0x08, 0x18, 0x00, 0x00, 0x00, 0x1c, 0x00, 0x00, 0x00,
  0x00, 0x00, 0x06, 0x00, 0x08, 0x00, 0x07, 0x00, 0x06, 0x00, 0x00, 0x00,
  0x00, 0x00, 0x00, 0x01, 0x01, 0x00, 0x00, 0x00, 0x09, 0x00, 0x00, 0x00,
  0x03, 0x00, 0x00, 0x00, 0x00, 0x00, 0x00, 0x00, 0x08, 0x00, 0x00, 0x00,
  0x07, 0x00, 0x00, 0x00, 0x01, 0x00, 0x00, 0x00, 0x0c, 0x00, 0x00, 0x00,
  0x01, 0x00, 0x00, 0x00, 0x00, 0x00, 0x00, 0x00, 0x0d, 0x00, 0x00, 0x00,
  0xb0, 0x04, 0x00, 0x00, 0x58, 0x04, 0x00, 0x00, 0x00, 0x04, 0x00, 0x00,
  0xc0, 0x03, 0x00, 0x00, 0x84, 0x03, 0x00, 0x00, 0x48, 0x03, 0x00, 0x00,
  0xec, 0x02, 0x00, 0x00, 0x90, 0x02, 0x00, 0x00, 0x40, 0x02, 0x00, 0x00,
  0xa0, 0x01, 0x00, 0x00, 0x00, 0x01, 0x00, 0x00, 0x60, 0x00, 0x00, 0x00,
  0x04, 0x00, 0x00, 0x00, 0x9a, 0xfb, 0xff, 0xff, 0x00, 0x00, 0x00, 0x01,
  0x14, 0x00, 0x00, 0x00, 0x1c, 0x00, 0x00, 0x00, 0x1c, 0x00, 0x00, 0x00,
  0x0d, 0x00, 0x00, 0x00, 0x34, 0x00, 0x00, 0x00, 0x02, 0x00, 0x00, 0x00,
  0xff, 0xff, 0xff, 0xff, 0x14, 0x00, 0x00, 0x00, 0x84, 0xfb, 0xff, 0xff,
  0x1b, 0x00, 0x00, 0x00, 0x53, 0x74, 0x61, 0x74, 0x65, 0x66, 0x75, 0x6c,
  0x50, 0x61, 0x72, 0x74, 0x69, 0x74, 0x69, 0x6f, 0x6e, 0x65, 0x64, 0x43,
  0x61, 0x6c, 0x6c, 0x5f, 0x31, 0x3a, 0x30, 0x00, 0x02, 0x00, 0x00, 0x00,
  0x01, 0x00, 0x00, 0x00, 0x14, 0x00, 0x00, 0x00, 0xf2, 0xfb, 0xff, 0xff,
  0x00, 0x00, 0x00, 0x01, 0x14, 0x00, 0x00, 0x00, 0x1c, 0x00, 0x00, 0x00,
  0x1c, 0x00, 0x00, 0x00, 0x0c, 0x00, 0x00, 0x00, 0x78, 0x00, 0x00, 0x00,
  0x02, 0x00, 0x00, 0x00, 0xff, 0xff, 0xff, 0xff, 0x10, 0x00, 0x00, 0x00,
  0xdc, 0xfb, 0xff, 0xff, 0x5e, 0x00, 0x00, 0x00, 0x73, 0x65, 0x71, 0x75,
  0x65, 0x6e, 0x74, 0x69, 0x61, 0x6c, 0x5f, 0x31, 0x2f, 0x64, 0x65, 0x63,
  0x6f, 0x64, 0x65, 0x72, 0x5f, 0x31, 0x5f, 0x31, 0x2f, 0x4d, 0x61, 0x74,
  0x4d, 0x75, 0x6c, 0x3b, 0x73, 0x65, 0x71, 0x75, 0x65, 0x6e, 0x74, 0x69,
  0x61, 0x6c, 0x5f, 0x31, 0x2f, 0x64, 0x65, 0x63, 0x6f, 0x64, 0x65, 0x72,
  0x5f, 0x31, 0x5f, 0x31, 0x2f, 0x52, 0x65, 0x6c, 0x75, 0x3b, 0x73, 0x65,
  0x71, 0x75, 0x65, 0x6e, 0x74, 0x69, 0x61, 0x6c, 0x5f, 0x31, 0x2f, 0x64,
  0x65, 0x63, 0x6f, 0x64, 0x65, 0x72, 0x5f, 0x31, 0x5f, 0x31, 0x2f, 0x42,
  0x69, 0x61, 0x73, 0x41, 0x64, 0x64, 0x00, 0x00, 0x02, 0x00, 0x00, 0x00,
  0x01, 0x00, 0x00, 0x00, 0x10, 0x00, 0x00, 0x00, 0x8e, 0xfc, 0xff, 0xff,
  0x00, 0x00, 0x00, 0x01, 0x14, 0x00, 0x00, 0x00, 0x1c, 0x00, 0x00, 0x00,
  0x1c, 0x00, 0x00, 0x00, 0x0b, 0x00, 0x00, 0x00, 0x78, 0x00, 0x00, 0x00,
  0x02, 0x00, 0x00, 0x00, 0xff, 0xff, 0xff, 0xff, 0x08, 0x00, 0x00, 0x00,
  0x78, 0xfc, 0xff, 0xff, 0x5e, 0x00, 0x00, 0x00, 0x73, 0x65, 0x71, 0x75,
  0x65, 0x6e, 0x74, 0x69, 0x61, 0x6c, 0x5f, 0x31, 0x2f, 0x65, 0x6e, 0x63,
  0x6f, 0x64, 0x65, 0x72, 0x5f, 0x32, 0x5f, 0x31, 0x2f, 0x4d, 0x61, 0x74,
  0x4d, 0x75, 0x6c, 0x3b, 0x73, 0x65, 0x71, 0x75, 0x65, 0x6e, 0x74, 0x69,
  0x61, 0x6c, 0x5f, 0x31, 0x2f, 0x65, 0x6e, 0x63, 0x6f, 0x64, 0x65, 0x72,
  0x5f, 0x32, 0x5f, 0x31, 0x2f, 0x52, 0x65, 0x6c, 0x75, 0x3b, 0x73, 0x65,
  0x71, 0x75, 0x65, 0x6e, 0x74, 0x69, 0x61, 0x6c, 0x5f, 0x31, 0x2f, 0x65,
  0x6e, 0x63, 0x6f, 0x64, 0x65, 0x72, 0x5f, 0x32, 0x5f, 0x31, 0x2f, 0x42,
  0x69, 0x61, 0x73, 0x41, 0x64, 0x64, 0x00, 0x00, 0x02, 0x00, 0x00, 0x00,
  0x01, 0x00, 0x00, 0x00, 0x08, 0x00, 0x00, 0x00, 0x2a, 0xfd, 0xff, 0xff,
  0x00, 0x00, 0x00, 0x01, 0x14, 0x00, 0x00, 0x00, 0x1c, 0x00, 0x00, 0x00,
  0x1c, 0x00, 0x00, 0x00, 0x0a, 0x00, 0x00, 0x00, 0x78, 0x00, 0x00, 0x00,
  0x02, 0x00, 0x00, 0x00, 0xff, 0xff, 0xff, 0xff, 0x10, 0x00, 0x00, 0x00,
  0x14, 0xfd, 0xff, 0xff, 0x5e, 0x00, 0x00, 0x00, 0x73, 0x65, 0x71, 0x75,
  0x65, 0x6e, 0x74, 0x69, 0x61, 0x6c, 0x5f, 0x31, 0x2f, 0x65, 0x6e, 0x63,
  0x6f, 0x64, 0x65, 0x72, 0x5f, 0x31, 0x5f, 0x31, 0x2f, 0x4d, 0x61, 0x74,
  0x4d, 0x75, 0x6c, 0x3b, 0x73, 0x65, 0x71, 0x75, 0x65, 0x6e, 0x74, 0x69,
  0x61, 0x6c, 0x5f, 0x31, 0x2f, 0x65, 0x6e, 0x63, 0x6f, 0x64, 0x65, 0x72,
  0x5f, 0x31, 0x5f, 0x31, 0x2f, 0x52, 0x65, 0x6c, 0x75, 0x3b, 0x73, 0x65,
  0x71, 0x75, 0x65, 0x6e, 0x74, 0x69, 0x61, 0x6c, 0x5f, 0x31, 0x2f, 0x65,
  0x6e, 0x63, 0x6f, 0x64, 0x65, 0x72, 0x5f, 0x31, 0x5f, 0x31, 0x2f, 0x42,
  0x69, 0x61, 0x73, 0x41, 0x64, 0x64, 0x00, 0x00, 0x02, 0x00, 0x00, 0x00,
  0x01, 0x00, 0x00, 0x00, 0x10, 0x00, 0x00, 0x00, 0x1a, 0xfe, 0xff, 0xff,
  0x00, 0x00, 0x00, 0x01, 0x10, 0x00, 0x00, 0x00, 0x10, 0x00, 0x00, 0x00,
  0x09, 0x00, 0x00, 0x00, 0x2c, 0x00, 0x00, 0x00, 0xa0, 0xfd, 0xff, 0xff,
  0x1f, 0x00, 0x00, 0x00, 0x73, 0x65, 0x71, 0x75, 0x65, 0x6e, 0x74, 0x69,
  0x61, 0x6c, 0x5f, 0x31, 0x2f, 0x65, 0x6e, 0x63, 0x6f, 0x64, 0x65, 0x72,
  0x5f, 0x31, 0x5f, 0x31, 0x2f, 0x4d, 0x61, 0x74, 0x4d, 0x75, 0x6c, 0x00,
  0x02, 0x00, 0x00, 0x00, 0x10, 0x00, 0x00, 0x00, 0x14, 0x00, 0x00, 0x00,
  0x66, 0xfe, 0xff, 0xff, 0x00, 0x00, 0x00, 0x01, 0x10, 0x00, 0x00, 0x00,
  0x10, 0x00, 0x00, 0x00, 0x08, 0x00, 0x00, 0x00, 0x3c, 0x00, 0x00, 0x00,
  0xec, 0xfd, 0xff, 0xff, 0x2f, 0x00, 0x00, 0x00, 0x73, 0x65, 0x71, 0x75,
  0x65, 0x6e, 0x74, 0x69, 0x61, 0x6c, 0x5f, 0x31, 0x2f, 0x65, 0x6e, 0x63,
  0x6f, 0x64, 0x65, 0x72, 0x5f, 0x31, 0x5f, 0x31, 0x2f, 0x42, 0x69, 0x61,
  0x73, 0x41, 0x64, 0x64, 0x2f, 0x52, 0x65, 0x61, 0x64, 0x56, 0x61, 0x72,
  0x69, 0x61, 0x62, 0x6c, 0x65, 0x4f, 0x70, 0x00, 0x01, 0x00, 0x00, 0x00,
  0x10, 0x00, 0x00, 0x00, 0xbe, 0xfe, 0xff, 0xff, 0x00, 0x00, 0x00, 0x01,
  0x10, 0x00, 0x00, 0x00, 0x10, 0x00, 0x00, 0x00, 0x07, 0x00, 0x00, 0x00,
  0x3c, 0x00, 0x00, 0x00, 0x44, 0xfe, 0xff, 0xff, 0x2f, 0x00, 0x00, 0x00,
  0x73, 0x65, 0x71, 0x75, 0x65, 0x6e, 0x74, 0x69, 0x61, 0x6c, 0x5f, 0x31,
  0x2f, 0x64, 0x65, 0x63, 0x6f, 0x64, 0x65, 0x72, 0x5f, 0x31, 0x5f, 0x31,
  0x2f, 0x42, 0x69, 0x61, 0x73, 0x41, 0x64, 0x64, 0x2f, 0x52, 0x65, 0x61,
  0x64, 0x56, 0x61, 0x72, 0x69, 0x61, 0x62, 0x6c, 0x65, 0x4f, 0x70, 0x00,
  0x01, 0x00, 0x00, 0x00, 0x10, 0x00, 0x00, 0x00, 0x16, 0xff, 0xff, 0xff,
  0x00, 0x00, 0x00, 0x01, 0x10, 0x00, 0x00, 0x00, 0x10, 0x00, 0x00, 0x00,
  0x06, 0x00, 0x00, 0x00, 0x1c, 0x00, 0x00, 0x00, 0x9c, 0xfe, 0xff, 0xff,
  0x0f, 0x00, 0x00, 0x00, 0x61, 0x72, 0x69, 0x74, 0x68, 0x2e, 0x63, 0x6f,
  0x6e, 0x73, 0x74, 0x61, 0x6e, 0x74, 0x34, 0x00, 0x01, 0x00, 0x00, 0x00,
  0x08, 0x00, 0x00, 0x00, 0x4e, 0xff, 0xff, 0xff, 0x00, 0x00, 0x00, 0x01,
  0x10, 0x00, 0x00, 0x00, 0x10, 0x00, 0x00, 0x00, 0x05, 0x00, 0x00, 0x00,
  0x1c, 0x00, 0x00, 0x00, 0xd4, 0xfe, 0xff, 0xff, 0x0f, 0x00, 0x00, 0x00,
  0x61, 0x72, 0x69, 0x74, 0x68, 0x2e, 0x63, 0x6f, 0x6e, 0x73, 0x74, 0x61,
  0x6e, 0x74, 0x33, 0x00, 0x01, 0x00, 0x00, 0x00, 0x14, 0x00, 0x00, 0x00,
  0x86, 0xff, 0xff, 0xff, 0x00, 0x00, 0x00, 0x01, 0x10, 0x00, 0x00, 0x00,
  0x10, 0x00, 0x00, 0x00, 0x04, 0x00, 0x00, 0x00, 0x1c, 0x00, 0x00, 0x00,
  0x0c, 0xff, 0xff, 0xff, 0x0f, 0x00, 0x00, 0x00, 0x61, 0x72, 0x69, 0x74,
  0x68, 0x2e, 0x63, 0x6f, 0x6e, 0x73, 0x74, 0x61, 0x6e, 0x74, 0x32, 0x00,
  0x02, 0x00, 0x00, 0x00, 0x08, 0x00, 0x00, 0x00, 0x10, 0x00, 0x00, 0x00,
  0xc2, 0xff, 0xff, 0xff, 0x00, 0x00, 0x00, 0x01, 0x10, 0x00, 0x00, 0x00,
  0x10, 0x00, 0x00, 0x00, 0x03, 0x00, 0x00, 0x00, 0x1c, 0x00, 0x00, 0x00,
  0x48, 0xff, 0xff, 0xff, 0x0f, 0x00, 0x00, 0x00, 0x61, 0x72, 0x69, 0x74,
  0x68, 0x2e, 0x63, 0x6f, 0x6e, 0x73, 0x74, 0x61, 0x6e, 0x74, 0x31, 0x00,
  0x02, 0x00, 0x00, 0x00, 0x10, 0x00, 0x00, 0x00, 0x08, 0x00, 0x00, 0x00,
  0x00, 0x00, 0x16, 0x00, 0x18, 0x00, 0x14, 0x00, 0x00, 0x00, 0x10, 0x00,
  0x0c, 0x00, 0x08, 0x00, 0x00, 0x00, 0x00, 0x00, 0x00, 0x00, 0x07, 0x00,
  0x16, 0x00, 0x00, 0x00, 0x00, 0x00, 0x00, 0x01, 0x10, 0x00, 0x00, 0x00,
  0x10, 0x00, 0x00, 0x00, 0x02, 0x00, 0x00, 0x00, 0x1c, 0x00, 0x00, 0x00,
  0x9c, 0xff, 0xff, 0xff, 0x0e, 0x00, 0x00, 0x00, 0x61, 0x72, 0x69, 0x74,
  0x68, 0x2e, 0x63, 0x6f, 0x6e, 0x73, 0x74, 0x61, 0x6e, 0x74, 0x00, 0x00,
  0x02, 0x00, 0x00, 0x00, 0x14, 0x00, 0x00, 0x00, 0x10, 0x00, 0x00, 0x00,
  0x00, 0x00, 0x16, 0x00, 0x1c, 0x00, 0x18, 0x00, 0x00, 0x00, 0x14, 0x00,
  0x10, 0x00, 0x0c, 0x00, 0x00, 0x00, 0x00, 0x00, 0x08, 0x00, 0x07, 0x00,
  0x16, 0x00, 0x00, 0x00, 0x00, 0x00, 0x00, 0x01, 0x14, 0x00, 0x00, 0x00,
  0x20, 0x00, 0x00, 0x00, 0x20, 0x00, 0x00, 0x00, 0x01, 0x00, 0x00, 0x00,
  0x3c, 0x00, 0x00, 0x00, 0x02, 0x00, 0x00, 0x00, 0xff, 0xff, 0xff, 0xff,
  0x14, 0x00, 0x00, 0x00, 0x04, 0x00, 0x04, 0x00, 0x04, 0x00, 0x00, 0x00,
  0x1e, 0x00, 0x00, 0x00, 0x73, 0x65, 0x72, 0x76, 0x69, 0x6e, 0x67, 0x5f,
  0x64, 0x65, 0x66, 0x61, 0x75, 0x6c, 0x74, 0x5f, 0x6b, 0x65, 0x72, 0x61,
  0x73, 0x5f, 0x74, 0x65, 0x6e, 0x73, 0x6f, 0x72, 0x3a, 0x30, 0x00, 0x00,
  0x02, 0x00, 0x00, 0x00, 0x01, 0x00, 0x00, 0x00, 0x14, 0x00, 0x00, 0x00,
  0x01, 0x00, 0x00, 0x00, 0x10, 0x00, 0x00, 0x00, 0x0c, 0x00, 0x0c, 0x00,
  0x0b, 0x00, 0x00, 0x00, 0x00, 0x00, 0x04, 0x00, 0x0c, 0x00, 0x00, 0x00,
  0x09, 0x00, 0x00, 0x00, 0x00, 0x00, 0x00, 0x09
};
unsigned int autoencoder_temperatura_float_tflite_len = 6128;
