unsigned char autoencoder_temperatura_float_tflite[] = {
  0x1c, 0x00, 0x00, 0x00, 0x54, 0x46, 0x4c, 0x33, 0x14, 0x00, 0x20, 0x00,
  0x1c, 0x00, 0x18, 0x00, 0x14, 0x00, 0x10, 0x00, 0x0c, 0x00, 0x00, 0x00,
  0x08, 0x00, 0x04, 0x00, 0x14, 0x00, 0x00, 0x00, 0x1c, 0x00, 0x00, 0x00,
  0x98, 0x00, 0x00, 0x00, 0xf0, 0x00, 0x00, 0x00, 0xc8, 0x25, 0x00, 0x00,
  0xd8, 0x25, 0x00, 0x00, 0x3c, 0x2c, 0x00, 0x00, 0x03, 0x00, 0x00, 0x00,
  0x01, 0x00, 0x00, 0x00, 0x10, 0x00, 0x00, 0x00, 0x00, 0x00, 0x0a, 0x00,
  0x10, 0x00, 0x0c, 0x00, 0x08, 0x00, 0x04, 0x00, 0x0a, 0x00, 0x00, 0x00,
  0x0c, 0x00, 0x00, 0x00, 0x1c, 0x00, 0x00, 0x00, 0x3c, 0x00, 0x00, 0x00,
  0x0f, 0x00, 0x00, 0x00, 0x73, 0x65, 0x72, 0x76, 0x69, 0x6e, 0x67, 0x5f,
  0x64, 0x65, 0x66, 0x61, 0x75, 0x6c, 0x74, 0x00, 0x01, 0x00, 0x00, 0x00,
  0x04, 0x00, 0x00, 0x00, 0x90, 0xff, 0xff, 0xff, 0x0c, 0x00, 0x00, 0x00,
  0x04, 0x00, 0x00, 0x00, 0x08, 0x00, 0x00, 0x00, 0x6f, 0x75, 0x74, 0x70,
  0x75, 0x74, 0x5f, 0x30, 0x00, 0x00, 0x00, 0x00, 0x01, 0x00, 0x00, 0x00,
  0x04, 0x00, 0x00, 0x00, 0xc6, 0xe9, 0xff, 0xff, 0x04, 0x00, 0x00, 0x00,
  0x0c, 0x00, 0x00, 0x00, 0x6b, 0x65, 0x72, 0x61, 0x73, 0x5f, 0x74, 0x65,
  0x6e, 0x73, 0x6f, 0x72, 0x00, 0x00, 0x00, 0x00, 0x02, 0x00, 0x00, 0x00,
  0x34, 0x00, 0x00, 0x00, 0x04, 0x00, 0x00, 0x00, 0xdc, 0xff, 0xff, 0xff,
  0x0f, 0x00, 0x00, 0x00, 0x04, 0x00, 0x00, 0x00, 0x13, 0x00, 0x00, 0x00,
  0x43, 0x4f, 0x4e, 0x56, 0x45, 0x52, 0x53, 0x49, 0x4f, 0x4e, 0x5f, 0x4d,
  0x45, 0x54, 0x41, 0x44, 0x41, 0x54, 0x41, 0x00, 0x08, 0x00, 0x0c, 0x00,
  0x08, 0x00, 0x04, 0x00, 0x08, 0x00, 0x00, 0x00, 0x0e, 0x00, 0x00, 0x00,
  0x04, 0x00, 0x00, 0x00, 0x13, 0x00, 0x00, 0x00, 0x6d, 0x69, 0x6e, 0x5f,
  0x72, 0x75, 0x6e, 0x74, 0x69, 0x6d, 0x65, 0x5f, 0x76, 0x65, 0x72, 0x73,
  0x69, 0x6f, 0x6e, 0x00, 0x10, 0x00, 0x00, 0x00, 0xd4, 0x24, 0x00, 0x00,
  0xcc, 0x24, 0x00, 0x00, 0xbc, 0x15, 0x00, 0x00, 0xa4, 0x13, 0x00, 0x00,
  0x94, 0x11, 0x00, 0x00, 0x94, 0x10, 0x00, 0x00, 0x64, 0x10, 0x00, 0x00,
  0x14, 0x10, 0x00, 0x00, 0xc4, 0x0f, 0x00, 0x00, 0xb4, 0x00, 0x00, 0x00,
  0xac, 0x00, 0x00, 0x00, 0xa4, 0x00, 0x00, 0x00, 0x9c, 0x00, 0x00, 0x00,
  0x94, 0x00, 0x00, 0x00, 0x74, 0x00, 0x00, 0x00, 0x04, 0x00, 0x00, 0x00,
  0x82, 0xea, 0xff, 0xff, 0x04, 0x00, 0x00, 0x00, 0x60, 0x00, 0x00, 0x00,
  0x10, 0x00, 0x00, 0x00, 0x00, 0x00, 0x00, 0x00, 0x08, 0x00, 0x0e, 0x00,
  0x08, 0x00, 0x04, 0x00, 0x08, 0x00, 0x00, 0x00, 0x10, 0x00, 0x00, 0x00,
  0x24, 0x00, 0x00, 0x00, 0x00, 0x00, 0x06, 0x00, 0x08, 0x00, 0x04, 0x00,
  0x06, 0x00, 0x00, 0x00, 0x04, 0x00, 0x00, 0x00, 0x00, 0x00, 0x00, 0x00,
  0x0c, 0x00, 0x18, 0x00, 0x14, 0x00, 0x10, 0x00, 0x0c, 0x00, 0x04, 0x00,
  0x0c, 0x00, 0x00, 0x00, 0xb5, 0x1f, 0x48, 0x9c, 0x13, 0x16, 0x3b, 0x3c,
  0x02, 0x00, 0x00, 0x00, 0x02, 0x00, 0x00, 0x00, 0x04, 0x00, 0x00, 0x00,
  0x06, 0x00, 0x00, 0x00, 0x32, 0x2e, 0x31, 0x39, 0x2e, 0x30, 0x00, 0x00,
  0xee, 0xea, 0xff, 0xff, 0x04, 0x00, 0x00, 0x00, 0x10, 0x00, 0x00, 0x00,
  0x31, 0x2e, 0x35, 0x2e, 0x30, 0x00, 0x00, 0x00, 0x00, 0x00, 0x00, 0x00,
  0x00, 0x00, 0x00, 0x00, 0xac, 0xd5, 0xff, 0xff, 0xb0, 0xd5, 0xff, 0xff,
  0xb4, 0xd5, 0xff, 0xff, 0xb8, 0xd5, 0xff, 0xff, 0x1a, 0xeb, 0xff, 0xff,
  0x04, 0x00, 0x00, 0x00, 0x00, 0x0f, 0x00, 0x00, 0xa3, 0x11, 0x99, 0x3e,
  0xc3, 0xdd, 0x17, 0x3e, 0x42, 0x95, 0x3f, 0x3d, 0xbe, 0xd3, 0x3d, 0x3e,
  0xfc, 0x01, 0xbe, 0xbd, 0xbc, 0xa4, 0xa7, 0xbd, 0xa7, 0xc4, 0x40, 0x3e,
  0xa2, 0x86, 0x41, 0x3e, 0x3d, 0x02, 0x8f, 0xbd, 0xa3, 0x2d, 0xfe, 0xbd,
  0x59, 0xb0, 0xd1, 0xbd, 0x62, 0xfc, 0x37, 0xbe, 0xf2, 0xc8, 0x92, 0x3e,
  0x49, 0x45, 0x1b, 0x3e, 0x92, 0x6a, 0x73, 0xbe, 0xd3, 0x74, 0x5f, 0x3e,
  0xb0, 0x4e, 0x84, 0xbc, 0x61, 0x9e, 0xb3, 0x3d, 0xd3, 0x99, 0xb1, 0xbd,
  0x4a, 0xab, 0x7e, 0x3e, 0x99, 0x64, 0xa1, 0x3d, 0x24, 0x4a, 0xd7, 0x3d,
  0x25, 0x8c, 0x93, 0xbc, 0x20, 0x59, 0xf4, 0x3c, 0xb1, 0x4c, 0x80, 0x3d,
  0xd3, 0x6f, 0xae, 0xbc, 0x3e, 0xcf, 0x23, 0x3e, 0x91, 0x0a, 0xe9, 0xbd,
  0x5c, 0x20, 0xef, 0x3d, 0x94, 0x5b, 0x94, 0x3e, 0xf3, 0x5a, 0x4d, 0xbe,
  0x59, 0x2c, 0xb2, 0xbd, 0xff, 0x9c, 0x03, 0x3e, 0xea, 0x05, 0x66, 0x3e,
  0xae, 0x78, 0xbc, 0xbd, 0xf3, 0x29, 0x30, 0x3e, 0x06, 0xf4, 0x90, 0x3e,
  0x22, 0x53, 0x44, 0xbd, 0xe9, 0xd3, 0x8b, 0x3d, 0x4e, 0x6a, 0xe2, 0x3d,
  0x83, 0x36, 0x4b, 0xbd, 0x50, 0x5c, 0x06, 0x3d, 0xd5, 0x64, 0x8b, 0x3e,
  0x6f, 0x6a, 0x5b, 0xbe, 0x77, 0xf6, 0x60, 0x3e, 0x17, 0x88, 0x87, 0xbd,
  0x8a, 0x7a, 0x85, 0x3d, 0x38, 0xcf, 0xef, 0xbc, 0x5a, 0x3c, 0xb5, 0xbd,
  0xdd, 0xf1, 0x4b, 0x3e, 0x08, 0x64, 0x0d, 0xbe, 0xf5, 0xc3, 0x30, 0xbe,
  0xe5, 0x74, 0x78, 0x3e, 0x4a, 0x65, 0x53, 0x3e, 0x87, 0x74, 0x19, 0xbe,
  0x89, 0xc0, 0x7e, 0x3e, 0x97, 0xda, 0xa7, 0x3e, 0x06, 0xc3, 0xc6, 0x3d,
  0x77, 0xeb, 0x1f, 0x3e, 0x79, 0xd5, 0x61, 0x3d, 0xe2, 0xfb, 0x5b, 0x3e,
  0x38, 0xf6, 0x0d, 0x3e, 0xf3, 0xe8, 0x98, 0xbe, 0xa4, 0x86, 0xf2, 0xbb,
  0x80, 0xb9, 0x15, 0x3e, 0xc7, 0xc2, 0x08, 0xbe, 0x92, 0x75, 0x32, 0x3e,
  0x07, 0x3c, 0x7b, 0xbd, 0x90, 0x53, 0xc8, 0xbc, 0x83, 0xee, 0x56, 0x3e,
  0x70, 0xf5, 0xaa, 0x3c, 0x0f, 0x41, 0x9a, 0x3d, 0xfc, 0x58, 0x6f, 0x3d,
  0x08, 0xab, 0xaa, 0x3d, 0x14, 0x7f, 0x7d, 0x3e, 0x7d, 0x4b, 0x37, 0xbe,
  0xc7, 0x3f, 0x60, 0xbe, 0x2b, 0xf0, 0xb0, 0xbd, 0xbb, 0x48, 0x6d, 0x3d,
  0x38, 0xc3, 0x13, 0x3d, 0xc7, 0xa9, 0x24, 0xbe, 0xbf, 0x4a, 0x6d, 0xbe,
  0x99, 0xb5, 0x73, 0xbd, 0x36, 0x3a, 0x81, 0x3e, 0x09, 0xf2, 0x36, 0xbd,
  0x67, 0xbc, 0x96, 0xbe, 0x5e, 0x8e, 0xec, 0x3d, 0x19, 0x98, 0xfc, 0x3d,
  0x8d, 0xe7, 0x37, 0x3e, 0x7f, 0x49, 0xfd, 0xbc, 0x12, 0x0b, 0x2f, 0x3e,
  0x09, 0x5f, 0x18, 0x3e, 0x71, 0x3f, 0x64, 0x3d, 0x84, 0x96, 0x3d, 0xbe,
  0xa7, 0x62, 0x90, 0xbe, 0x5f, 0x95, 0x35, 0xbe, 0x6d, 0xab, 0x91, 0xbe,
  0x91, 0xb0, 0x1e, 0xbc, 0x19, 0x62, 0xbd, 0x3d, 0x04, 0x29, 0x91, 0xbe,
  0xad, 0x62, 0xad, 0x3c, 0xd0, 0xdc, 0x62, 0xbe, 0x9b, 0x65, 0x3c, 0xbd,
  0x5a, 0xff, 0xc8, 0x3c, 0x23, 0x59, 0x69, 0xbe, 0x3f, 0x49, 0xad, 0x3d,
  0x37, 0xda, 0xd8, 0x3d, 0x9b, 0x71, 0xdc, 0x3d, 0x77, 0x5f, 0x56, 0xbe,
  0x3a, 0x3f, 0xb4, 0xbd, 0xff, 0x86, 0xc9, 0x3d, 0x14, 0xb9, 0x09, 0x3d,
  0xe9, 0x12, 0x30, 0x3e, 0x4a, 0x81, 0x61, 0xbe, 0x28, 0xcc, 0xcb, 0xbd,
  0x3d, 0x5e, 0xdc, 0xbd, 0x90, 0xd2, 0xce, 0xb8, 0x4e, 0x23, 0x9c, 0x3d,
  0x7c, 0x5a, 0x49, 0xbd, 0x3f, 0x3f, 0xb8, 0xbd, 0x62, 0x4b, 0x43, 0x3e,
  0xe0, 0x57, 0x6b, 0xbd, 0x44, 0x7b, 0xc6, 0xbd, 0x40, 0x55, 0xe8, 0x3c,
  0x60, 0xb3, 0x50, 0xbe, 0x87, 0x14, 0x6c, 0xbe, 0xb8, 0xcf, 0x4f, 0x3d,
  0x80, 0x1b, 0xa7, 0xbd, 0x08, 0x3c, 0x7e, 0x3d, 0x18, 0x9f, 0x62, 0xbd,
  0xa6, 0x25, 0x0c, 0xbe, 0x20, 0xa1, 0x35, 0xbd, 0xed, 0x7a, 0x80, 0x3e,
  0x4e, 0xba, 0x33, 0x3e, 0xa8, 0xfd, 0x54, 0xbd, 0x64, 0xab, 0x2a, 0x3e,
  0x94, 0xf6, 0xd6, 0x3d, 0x7b, 0xd0, 0x89, 0xbe, 0xde, 0xf0, 0x10, 0x3e,
  0x10, 0x7a, 0xf9, 0x3d, 0x32, 0x4d, 0x56, 0x3e, 0xe0, 0xda, 0xc0, 0x3d,
  0x3c, 0x26, 0x46, 0xbe, 0x94, 0x4e, 0x43, 0x3e, 0xdc, 0x39, 0xab, 0x3d,
  0x40, 0xf1, 0x63, 0xbe, 0xe0, 0x11, 0xd7, 0xbc, 0x06, 0x6b, 0xd3, 0xbd,
  0x99, 0x47, 0x34, 0xbe, 0x98, 0x44, 0xed, 0x3d, 0x62, 0xbb, 0x20, 0xbe,
  0x64, 0x8c, 0xd5, 0x3d, 0x89, 0xac, 0x87, 0xbe, 0x9a, 0xb5, 0x38, 0xbe,
  0x87, 0xc8, 0x03, 0xbe, 0x54, 0x0e, 0xe2, 0x3d, 0x34, 0x73, 0xc9, 0x3d,
  0x9e, 0x59, 0x4b, 0x3e, 0xa4, 0xf0, 0xfa, 0xbd, 0xb2, 0x7c, 0x67, 0xbe,
  0xe8, 0x78, 0x41, 0xbe, 0xb3, 0xb7, 0x8b, 0xbe, 0x57, 0x08, 0x79, 0xbe,
  0xed, 0x05, 0x8c, 0xbe, 0xc0, 0x79, 0xc6, 0x3d, 0x34, 0xf1, 0x8d, 0xbe,
  0x0a, 0x8e, 0x39, 0x3e, 0x89, 0xf7, 0x82, 0x3e, 0x95, 0x3a, 0x8c, 0x3e,
  0x66, 0x0c, 0x3d, 0xbe, 0xba, 0x0d, 0xc7, 0xbd, 0x00, 0x6a, 0x53, 0x3e,
  0x0c, 0x6e, 0x0a, 0xbe, 0x46, 0x0d, 0x6a, 0x3e, 0x60, 0xf4, 0x02, 0xbe,
  0xac, 0xa2, 0x58, 0xbe, 0x58, 0xfb, 0x71, 0xbd, 0xd6, 0xa4, 0x73, 0xbe,
  0x3e, 0xb8, 0xeb, 0xbd, 0xf1, 0x53, 0x15, 0xbe, 0xaa, 0x30, 0x14, 0xbd,
  0xf2, 0x12, 0x77, 0xbd, 0xc6, 0xdd, 0x76, 0x3e, 0x7b, 0x98, 0x54, 0xbe,
  0xf8, 0xca, 0x19, 0x3d, 0x2a, 0xb2, 0x31, 0x3d, 0x17, 0xcc, 0xf6, 0xbd,
  0x81, 0x2a, 0x30, 0xbe, 0x7f, 0x25, 0x0b, 0x3e, 0x44, 0xad, 0xac, 0x3d,
  0xf9, 0xb9, 0x4a, 0x3d, 0x60, 0xae, 0x4e, 0x3e, 0xd7, 0xa0, 0xc2, 0xbb,
  0x17, 0x4b, 0x58, 0xbe, 0xdd, 0xbc, 0xa6, 0xbc, 0x5b, 0x84, 0xdc, 0x3b,
  0x60, 0x8d, 0x40, 0x3e, 0xef, 0xd1, 0x12, 0x3e, 0x5b, 0xb0, 0x27, 0x3e,
  0xf4, 0x7f, 0xe3, 0xbd, 0x38, 0x7e, 0xc6, 0x3d, 0xee, 0x5a, 0x90, 0xbd,
  0x14, 0x0b, 0x6f, 0xbe, 0x4a, 0x13, 0x0b, 0xbd, 0x8b, 0xd0, 0x7d, 0x3e,
  0xab, 0x52, 0x97, 0xbe, 0x4a, 0xd6, 0x54, 0x3d, 0xc3, 0x6e, 0x2a, 0xbe,
  0xb9, 0x33, 0x1f, 0x3e, 0xbd, 0xfa, 0x46, 0x3e, 0xd9, 0x9e, 0x60, 0xbe,
  0x98, 0x46, 0x5e, 0x3e, 0xe2, 0x07, 0xad, 0x3d, 0x97, 0xa2, 0x3e, 0xbe,
  0xb0, 0xb4, 0x55, 0xbe, 0x02, 0x86, 0x03, 0x3e, 0xe7, 0x1c, 0x32, 0xbe,
  0xf3, 0x91, 0xd0, 0x3d, 0xe1, 0xf0, 0x91, 0xbe, 0x58, 0xf2, 0xca, 0x3d,
  0x3b, 0x7e, 0xac, 0xbd, 0x3e, 0x24, 0xfd, 0xbd, 0x08, 0x1a, 0x81, 0xbe,
  0x2b, 0x2d, 0x78, 0xbe, 0xbc, 0x34, 0xcb, 0x3d, 0x40, 0x20, 0xd4, 0x3c,
  0xf6, 0x31, 0x15, 0xbe, 0xfa, 0xbf, 0x6a, 0x3e, 0xb4, 0xc4, 0x01, 0xbe,
  0x1f, 0x97, 0x45, 0x3e, 0x31, 0xc8, 0x1a, 0xbd, 0x6f, 0xac, 0x3b, 0xbe,
  0x8b, 0xd4, 0x82, 0xbe, 0x6a, 0xd5, 0xa6, 0x3c, 0x12, 0xe8, 0x3f, 0x3e,
  0x6e, 0x50, 0xea, 0x3d, 0x55, 0x9c, 0x87, 0x3d, 0x7b, 0xe5, 0xd7, 0xbb,
  0x35, 0xe2, 0x18, 0xbe, 0x1d, 0x92, 0x2b, 0x3e, 0x10, 0x82, 0xda, 0x3d,
  0x71, 0x7e, 0x33, 0x3e, 0x9a, 0xc2, 0xbd, 0x3e, 0xb2, 0xb4, 0xf0, 0xbd,
  0xe9, 0xf3, 0x21, 0xbd, 0x0b, 0x5e, 0x9b, 0x3d, 0xdd, 0xc0, 0x56, 0x3e,
  0xf3, 0xf7, 0x28, 0xbe, 0x0a, 0xe7, 0x3e, 0x3e, 0xde, 0xd8, 0x3b, 0xbd,
  0xb5, 0x82, 0x82, 0x3e, 0x2a, 0x68, 0x0e, 0xbe, 0x76, 0xdb, 0x8f, 0x3d,
  0xb1, 0xf7, 0x2f, 0xbe, 0x6b, 0x9a, 0x52, 0xbe, 0x50, 0xee, 0x5b, 0x3e,
  0x7c, 0x62, 0x36, 0xbe, 0xb1, 0xab, 0x52, 0x3d, 0x8e, 0xd7, 0x23, 0x3c,
  0x21, 0xdd, 0xb1, 0xbd, 0xf7, 0x89, 0x39, 0xbe, 0xba, 0xfe, 0x37, 0xbd,
  0x5d, 0x78, 0x86, 0x3d, 0x39, 0x80, 0x58, 0xbd, 0xc2, 0xae, 0x8e, 0x3e,
  0xcd, 0xb2, 0x12, 0xbe, 0x08, 0x5e, 0x48, 0x3e, 0x9e, 0x63, 0x29, 0x3d,
  0xcb, 0x13, 0x1b, 0xbd, 0x3b, 0xc4, 0x5e, 0xbe, 0x22, 0xf5, 0x99, 0x3d,
  0xb4, 0x4d, 0xf7, 0x3a, 0x92, 0x58, 0x19, 0x3e, 0x9b, 0xce, 0x7f, 0x3d,
  0xbe, 0x28, 0x79, 0x3e, 0x0c, 0x10, 0x3b, 0xbd, 0x45, 0xab, 0x88, 0x3c,
  0x8a, 0x1b, 0xba, 0x3d, 0x4a, 0xce, 0x14, 0x3e, 0x7e, 0xce, 0x17, 0x3e,
  0x38, 0xc6, 0xcc, 0x3d, 0x63, 0x0d, 0xbd, 0x3d, 0x7b, 0xb1, 0x1e, 0xbe,
  0x66, 0x9a, 0x30, 0x3e, 0x11, 0x55, 0x1c, 0xbe, 0x74, 0xea, 0x7e, 0x3e,
  0x07, 0x95, 0x50, 0x3e, 0xb5, 0xf4, 0x4f, 0xbe, 0x81, 0xd8, 0x4a, 0x3e,
  0xd2, 0x57, 0x0a, 0x3e, 0x5f, 0x22, 0x55, 0xbe, 0x60, 0x40, 0x0e, 0x3d,
  0x14, 0xf1, 0x9b, 0x3c, 0x79, 0x2c, 0x0e, 0x3e, 0x00, 0x71, 0x80, 0xbe,
  0xfc, 0xa8, 0x4e, 0x3e, 0xf8, 0x36, 0x55, 0xbe, 0x68, 0xb5, 0x18, 0x3e,
  0x5d, 0xba, 0x98, 0xbe, 0x92, 0xc3, 0x4b, 0x3e, 0xd9, 0xfb, 0xb0, 0xbd,
  0x9f, 0xad, 0x12, 0xbe, 0x8c, 0xf2, 0x75, 0xbe, 0xc2, 0xd9, 0x53, 0xbe,
  0x23, 0x32, 0x94, 0x3d, 0x50, 0x46, 0x71, 0xbe, 0x17, 0x76, 0x6e, 0x3d,
  0x79, 0xf2, 0xa5, 0x3d, 0x09, 0x8a, 0x50, 0x3e, 0x86, 0x49, 0x24, 0xbd,
  0xdd, 0xb8, 0x09, 0xbe, 0x9e, 0xf3, 0x26, 0xbe, 0xd0, 0xa9, 0x1a, 0x3e,
  0x51, 0xfa, 0x28, 0x3e, 0x21, 0x47, 0x9d, 0xbe, 0x69, 0x29, 0x20, 0xbe,
  0x90, 0xc3, 0x60, 0xbd, 0xa9, 0x55, 0x22, 0xbe, 0x9c, 0xe0, 0x35, 0x3d,
  0xef, 0xbf, 0x42, 0xbe, 0x04, 0xc6, 0x95, 0xbd, 0xf5, 0xea, 0x24, 0xbe,
  0xd8, 0x92, 0x65, 0xbe, 0x53, 0xc8, 0x92, 0xbe, 0xf9, 0x5b, 0x14, 0x3e,
  0x5a, 0x1b, 0x2f, 0x3c, 0x5c, 0x8e, 0x79, 0x3d, 0xd8, 0x4f, 0x67, 0x3e,
  0xee, 0xb2, 0x97, 0x3d, 0xdf, 0xb5, 0x1f, 0xbe, 0xa7, 0xaa, 0xf5, 0x3d,
  0x20, 0x49, 0x78, 0x3d, 0x75, 0xd3, 0xd7, 0xbd, 0x3e, 0xf1, 0x69, 0xbe,
  0x91, 0xc4, 0x6e, 0xbe, 0x39, 0x83, 0x1a, 0x3e, 0x98, 0xf7, 0x07, 0x3c,
  0xd4, 0x97, 0x10, 0x3e, 0xec, 0x39, 0x6f, 0xbd, 0x1e, 0xb9, 0x5e, 0x3e,
  0x31, 0x6c, 0x1e, 0x3e, 0xaa, 0x51, 0x20, 0x3e, 0x8f, 0x15, 0x98, 0x3d,
  0xb4, 0x3c, 0x3d, 0x3e, 0xa3, 0x7e, 0xc2, 0x3d, 0xc3, 0x92, 0x8d, 0x3d,
  0x84, 0xd9, 0x6f, 0xbe, 0x9f, 0x9c, 0x51, 0x3e, 0xee, 0x73, 0xd7, 0x3d,
  0x73, 0x9f, 0x95, 0x3c, 0x0d, 0x10, 0x96, 0xbd, 0x90, 0x67, 0x5b, 0xbe,
  0xbe, 0xb9, 0x21, 0x3d, 0xb8, 0x15, 0x38, 0x3e, 0xf7, 0x69, 0xa9, 0xbe,
  0x9f, 0x49, 0x13, 0xbe, 0x2e, 0x2e, 0x48, 0x3c, 0x0d, 0x2c, 0xfe, 0x3d,
  0x80, 0x01, 0x1f, 0x3e, 0xbc, 0xf3, 0x99, 0xbe, 0xe1, 0xc3, 0x80, 0x3e,
  0x03, 0x3b, 0xe3, 0xba, 0x5f, 0xd1, 0xef, 0xbd, 0x72, 0x7e, 0xb2, 0x3e,
  0x23, 0xd4, 0x56, 0x3e, 0x8f, 0x4d, 0x6c, 0xbd, 0x83, 0x8c, 0x11, 0x3d,
  0x2e, 0xc4, 0x44, 0x3d, 0xfa, 0x80, 0x1f, 0x3e, 0xa3, 0x6e, 0xd3, 0x3c,
  0x31, 0x56, 0x9c, 0x3e, 0x44, 0x44, 0x8b, 0x3e, 0x5d, 0x88, 0xd9, 0xbd,
  0xa3, 0x9f, 0x49, 0x3e, 0x6d, 0xeb, 0x66, 0x3e, 0xad, 0x46, 0x2f, 0x3e,
  0x3f, 0x34, 0x48, 0xbd, 0x7b, 0x90, 0x69, 0x3e, 0x09, 0x36, 0x40, 0x3e,
  0xc2, 0x02, 0x65, 0x3d, 0xb7, 0x2c, 0x64, 0xbc, 0x5b, 0x6f, 0x27, 0xbe,
  0x83, 0x85, 0xcd, 0x3c, 0x3c, 0x6f, 0xce, 0xbd, 0x76, 0x9d, 0x70, 0x3d,
  0x38, 0xbd, 0x0d, 0xbd, 0xa9, 0x74, 0x30, 0x3e, 0x31, 0xe0, 0x8e, 0x3e,
  0x81, 0x1c, 0x72, 0x3e, 0x90, 0x07, 0x04, 0xbe, 0x3e, 0x84, 0xd6, 0xbd,
  0x70, 0x3c, 0x07, 0x3e, 0xf9, 0xc5, 0x0f, 0x3e, 0xf9, 0xd4, 0x57, 0xbe,
  0xd6, 0xd0, 0x4b, 0x3e, 0x37, 0x8c, 0x52, 0xbe, 0xfd, 0x2a, 0x8d, 0xbd,
  0xff, 0xfc, 0x19, 0xbe, 0x14, 0x20, 0x3d, 0xbd, 0x23, 0x7f, 0x16, 0xbd,
  0x53, 0x86, 0x53, 0x3e, 0xd7, 0x20, 0x3e, 0xbe, 0x42, 0x67, 0x0a, 0xbe,
  0x19, 0x5b, 0xd1, 0x3c, 0x8c, 0x88, 0xa1, 0xbd, 0xd9, 0x22, 0xcb, 0xbd,
  0x0a, 0x97, 0x6e, 0x3e, 0xc0, 0x34, 0x62, 0x3d, 0xb8, 0x4f, 0xa2, 0xbd,
  0xf6, 0x56, 0x8c, 0x3d, 0x87, 0x28, 0xd1, 0x3d, 0x11, 0x3b, 0x29, 0xbe,
  0xe7, 0x5c, 0xa2, 0x3d, 0x6d, 0x72, 0x5f, 0xbe, 0xf7, 0x51, 0xf5, 0xbd,
  0x19, 0xea, 0x35, 0xbe, 0x46, 0xd7, 0x41, 0x3e, 0xd7, 0xad, 0x35, 0xbe,
  0x86, 0x98, 0xbd, 0xbd, 0x19, 0x25, 0xf2, 0x3c, 0x5e, 0x7d, 0xdf, 0xbd,
  0x55, 0x8f, 0xc5, 0xbd, 0x79, 0x77, 0x76, 0xbd, 0xb3, 0x5e, 0xc8, 0x3d,
  0xe7, 0xc5, 0x17, 0xbe, 0x92, 0xb6, 0x78, 0xbd, 0xe6, 0xc7, 0x25, 0xbe,
  0x79, 0x7c, 0x91, 0xbe, 0x86, 0x95, 0x78, 0xbe, 0x88, 0x51, 0xa2, 0x3c,
  0xfe, 0xbf, 0x43, 0xbe, 0xb1, 0xdf, 0x65, 0x3e, 0xc6, 0x86, 0x22, 0x3c,
  0xcb, 0xe1, 0x61, 0x3e, 0x73, 0x8e, 0x2f, 0x3e, 0x54, 0x14, 0x1c, 0x3d,
  0x1d, 0x26, 0x39, 0x3e, 0xdb, 0x7b, 0xf1, 0xbb, 0xd9, 0xb9, 0x39, 0x3e,
  0x10, 0xc1, 0xe1, 0xbd, 0x2e, 0xee, 0xb4, 0x3b, 0x3b, 0xd5, 0x8a, 0xbd,
  0xd3, 0x35, 0x4d, 0x3c, 0xc0, 0xff, 0x58, 0x3e, 0x41, 0x47, 0xff, 0x3d,
  0x52, 0x3e, 0x8d, 0xbe, 0x14, 0x94, 0x00, 0x3e, 0x6c, 0xbb, 0x6f, 0xbe,
  0x16, 0xba, 0x34, 0x3e, 0xda, 0x05, 0x88, 0xbe, 0x06, 0xdd, 0xb9, 0xbd,
  0x68, 0xd2, 0x80, 0x3e, 0x98, 0xc3, 0x6c, 0xbe, 0xbf, 0x56, 0x07, 0x3e,
  0x6c, 0x05, 0x2e, 0x3e, 0xda, 0xf4, 0x8c, 0xbe, 0xb8, 0x78, 0x6d, 0xbd,
  0x90, 0xda, 0x41, 0x3e, 0xc2, 0xab, 0x58, 0xbe, 0xe4, 0xde, 0xee, 0xbd,
  0x5a, 0xa0, 0xfe, 0xbd, 0x4e, 0xcb, 0x8f, 0xbe, 0x15, 0xdb, 0x8a, 0xbe,
  0x55, 0x19, 0x15, 0x3e, 0x5a, 0x24, 0x84, 0xbe, 0x1d, 0x9f, 0x22, 0xbe,
  0x7b, 0xf6, 0xfe, 0x3d, 0xeb, 0xc1, 0x8b, 0x3e, 0xb7, 0xc0, 0x88, 0xbe,
  0x32, 0xd2, 0x39, 0x3e, 0x17, 0xc0, 0xbb, 0xbd, 0xcf, 0xcb, 0xc0, 0x3c,
  0x70, 0x5e, 0x4c, 0xbb, 0x4f, 0x20, 0x85, 0x3e, 0xda, 0x13, 0x18, 0x3e,
  0x3a, 0xdb, 0x40, 0xbe, 0xe8, 0xfd, 0x80, 0x3e, 0xbd, 0xa3, 0x71, 0x3e,
  0x5e, 0xef, 0x19, 0x3e, 0x8c, 0xad, 0x56, 0xbe, 0x74, 0x15, 0xbd, 0x3c,
  0x31, 0xe0, 0xb2, 0xbd, 0x5e, 0x86, 0x90, 0x3d, 0xd5, 0x6a, 0x09, 0xbe,
  0x09, 0x8d, 0xff, 0xbc, 0xd3, 0x8a, 0x8d, 0x3e, 0xc3, 0x6d, 0x9e, 0x3e,
  0x73, 0x5e, 0x86, 0x3e, 0xa5, 0x56, 0x84, 0xbd, 0x63, 0x0a, 0x3c, 0x3e,
  0xea, 0x92, 0x7f, 0xbd, 0xe7, 0x19, 0xb6, 0x3e, 0xaf, 0xa3, 0x9b, 0x3d,
  0xc7, 0x80, 0xf4, 0xbd, 0x96, 0xf7, 0x1a, 0x3d, 0x22, 0x7f, 0xf2, 0x3d,
  0xd9, 0x2f, 0xf6, 0x3d, 0x4b, 0x5d, 0xbd, 0xbd, 0xab, 0x4f, 0x63, 0x3d,
  0xf6, 0xbf, 0x4b, 0x3e, 0xb4, 0x91, 0x76, 0x3d, 0x97, 0xc7, 0xe7, 0x3d,
  0x9e, 0x4c, 0x79, 0x3d, 0x21, 0x3a, 0x22, 0x3e, 0xf4, 0x9c, 0x47, 0xbc,
  0x3a, 0x16, 0x59, 0xbe, 0xe3, 0xe3, 0xf1, 0x3d, 0x74, 0x0f, 0x8b, 0x3d,
  0x59, 0x62, 0x3e, 0x3e, 0x13, 0xab, 0x3c, 0x3e, 0xc1, 0x23, 0x16, 0xbe,
  0x40, 0xc9, 0x85, 0xbd, 0xb1, 0x7f, 0x45, 0xbe, 0x89, 0xf5, 0x41, 0x3e,
  0xdc, 0x6c, 0x29, 0x3e, 0x7d, 0x79, 0x6c, 0xbe, 0x61, 0x07, 0x82, 0x3e,
  0x51, 0x96, 0xca, 0x3d, 0x6e, 0x56, 0xc6, 0xbd, 0x7e, 0x0e, 0x51, 0xbd,
  0x33, 0xf0, 0x00, 0x3e, 0xa0, 0xd1, 0x04, 0xbd, 0x21, 0x57, 0x44, 0xbe,
  0xc2, 0xb6, 0x15, 0xbd, 0x25, 0xeb, 0x75, 0x3e, 0x70, 0xc9, 0x36, 0xbe,
  0x24, 0x8e, 0x94, 0xbe, 0x39, 0x36, 0x99, 0x3d, 0xd2, 0xfd, 0xa5, 0xbb,
  0x92, 0x9c, 0x3b, 0xbe, 0xa5, 0x60, 0xb7, 0xbc, 0xec, 0x5f, 0x39, 0x3d,
  0x64, 0x53, 0x42, 0xbd, 0xa2, 0x9c, 0x33, 0xbe, 0x6b, 0xd6, 0x76, 0x3d,
  0x42, 0x73, 0x8b, 0x3c, 0x3a, 0xfb, 0x6e, 0xbe, 0xd0, 0x56, 0x78, 0x3e,
  0x2d, 0xd0, 0xae, 0x3d, 0x95, 0x15, 0x22, 0xbe, 0x8c, 0x86, 0x8e, 0x3c,
  0xb0, 0xc4, 0x7e, 0xbb, 0xe3, 0x93, 0x25, 0x3e, 0xa5, 0x44, 0x66, 0x3e,
  0xdb, 0xd1, 0xa4, 0xbd, 0xa1, 0xb6, 0xfb, 0xbd, 0x01, 0x14, 0x89, 0x3e,
  0x64, 0x7b, 0x18, 0xbe, 0xe4, 0xf9, 0xb5, 0x3d, 0x78, 0xc7, 0xac, 0xbc,
  0x37, 0x5b, 0x1b, 0xbe, 0xc8, 0x94, 0x99, 0x3c, 0x89, 0xd9, 0xb2, 0x3d,
  0xe1, 0x7c, 0x7c, 0x3e, 0xdf, 0x8b, 0xdb, 0x3d, 0x9f, 0x3e, 0x20, 0xbd,
  0x0b, 0x96, 0x0a, 0xbe, 0x58, 0x94, 0x8f, 0x3e, 0xc8, 0x42, 0x99, 0x3d,
  0x86, 0x49, 0xff, 0xbd, 0x1e, 0xef, 0x8b, 0x3d, 0xa2, 0xf2, 0x0f, 0xbe,
  0x36, 0xec, 0x3c, 0x3d, 0x55, 0x3c, 0x9b, 0x3d, 0x22, 0x6c, 0x5f, 0x3e,
  0x2b, 0x24, 0x3e, 0xbe, 0xa2, 0x3b, 0x84, 0x3e, 0xd6, 0xb5, 0x5c, 0x3e,
  0xe6, 0x82, 0x73, 0x3e, 0xce, 0x54, 0xa5, 0x3d, 0xb5, 0xa5, 0x1c, 0xbe,
  0x72, 0xa9, 0x88, 0x3e, 0x36, 0x46, 0xac, 0x3e, 0x40, 0x92, 0x52, 0xbe,
  0xb0, 0x10, 0xb6, 0x3e, 0xcd, 0xc8, 0x5e, 0x3d, 0x5c, 0x75, 0x23, 0xbe,
  0x61, 0xa7, 0x32, 0xbe, 0xaf, 0x92, 0x65, 0x3e, 0x20, 0xc3, 0x59, 0x3d,
  0x5a, 0x85, 0x7f, 0x3e, 0xaa, 0xc3, 0xac, 0x3c, 0x52, 0x59, 0x26, 0x3d,
  0xda, 0xa5, 0xaf, 0x3d, 0x78, 0xd8, 0x9f, 0x3e, 0x75, 0x82, 0x9d, 0x3e,
  0xc3, 0x3f, 0xd5, 0x3d, 0x0c, 0xa4, 0x62, 0x3e, 0x8e, 0x89, 0x0b, 0xbe,
  0xb7, 0xd4, 0x86, 0x3e, 0xdb, 0x93, 0xee, 0xbc, 0x2d, 0x9b, 0xeb, 0x3d,
  0x1e, 0xd0, 0xc8, 0x3b, 0x27, 0xc7, 0x23, 0x3e, 0x4f, 0x17, 0xf3, 0xbd,
  0x98, 0x92, 0xbc, 0x3e, 0xda, 0x09, 0xdf, 0x3d, 0xd3, 0x46, 0x72, 0x3e,
  0x3b, 0x95, 0xb3, 0xbc, 0xd9, 0x8a, 0x92, 0x3e, 0x1f, 0xc6, 0x09, 0x3d,
  0x3e, 0xd9, 0x4d, 0x3e, 0x1a, 0xe7, 0x1f, 0x3c, 0xfe, 0x7d, 0xdc, 0xbd,
  0x0e, 0x07, 0x2a, 0xbe, 0x03, 0x09, 0xa0, 0x3e, 0x95, 0x77, 0x82, 0x3e,
  0x54, 0x7c, 0xa1, 0x3d, 0x70, 0x57, 0x38, 0xbd, 0xe0, 0x10, 0xa5, 0xbd,
  0xd6, 0xd2, 0x42, 0x3e, 0x56, 0x01, 0xf3, 0x3d, 0x97, 0x1d, 0x2e, 0x3e,
  0x97, 0x37, 0xdb, 0x3d, 0xeb, 0xd8, 0x77, 0x3e, 0x36, 0x7f, 0x48, 0x3e,
  0x05, 0xfb, 0x59, 0x3e, 0xa3, 0xbd, 0x26, 0x3d, 0x62, 0xad, 0xa7, 0xbd,
  0x6b, 0xdc, 0x92, 0xbd, 0xa4, 0x5f, 0x75, 0x3d, 0x86, 0x5f, 0x68, 0x3e,
  0xac, 0xbd, 0x31, 0xbe, 0xaf, 0xab, 0x7b, 0x3e, 0x75, 0x44, 0x2a, 0x3c,
  0x22, 0x9e, 0x33, 0xbd, 0xa1, 0x60, 0x7a, 0xbd, 0xa2, 0x39, 0xee, 0xbc,
  0xe0, 0x25, 0x9d, 0xbb, 0x68, 0x88, 0x42, 0x3e, 0xee, 0x8f, 0x9a, 0x3e,
  0x97, 0x6b, 0x5c, 0x3d, 0xbf, 0xbf, 0x80, 0x3e, 0x0f, 0x92, 0x53, 0x3e,
  0x14, 0x6f, 0x18, 0xbd, 0x15, 0xe3, 0x2c, 0xbe, 0x21, 0x9d, 0xfa, 0xbd,
  0x19, 0xf7, 0x17, 0xbe, 0x5b, 0x19, 0x8c, 0x3d, 0x57, 0x0a, 0x81, 0x3e,
  0x92, 0xa4, 0xc3, 0xbd, 0x64, 0x73, 0x8a, 0x3e, 0x51, 0x42, 0xf4, 0xbd,
  0x69, 0xff, 0xf8, 0x3d, 0x34, 0x6f, 0x9a, 0x3e, 0xdf, 0xb8, 0x42, 0x3e,
  0x1b, 0x47, 0x2c, 0xbe, 0xfc, 0x00, 0x26, 0xbe, 0x88, 0xdd, 0x40, 0x3e,
  0x4e, 0x53, 0x53, 0x3c, 0x58, 0x84, 0x07, 0x3e, 0x3e, 0xe7, 0xc4, 0x3d,
  0x92, 0x0e, 0x1b, 0x3e, 0xcd, 0x82, 0x79, 0x3e, 0xf0, 0x0f, 0x8f, 0xbc,
  0x45, 0xaa, 0xd2, 0xbd, 0x3f, 0x6f, 0x9b, 0xbd, 0x01, 0xb9, 0xb4, 0x3d,
  0xcc, 0x7b, 0x1a, 0xbc, 0x02, 0xfb, 0xf9, 0x3d, 0x9c, 0x02, 0xcd, 0x3d,
  0x46, 0x1b, 0x09, 0xbe, 0xb9, 0xfb, 0xb4, 0x3d, 0x67, 0xa1, 0x89, 0xbe,
  0xc6, 0xed, 0x03, 0x3e, 0x20, 0xdd, 0x0c, 0x3d, 0x25, 0x00, 0xcb, 0x3d,
  0x31, 0x9d, 0x7a, 0x3e, 0x89, 0xa2, 0x85, 0xbe, 0xc7, 0x54, 0x17, 0xbe,
  0xf1, 0xbd, 0x27, 0xbc, 0x2f, 0xd1, 0x8c, 0xbe, 0x2b, 0xc8, 0x03, 0xbe,
  0x52, 0x08, 0xd2, 0xbd, 0xbd, 0x26, 0x2f, 0x3e, 0xad, 0x11, 0x2e, 0xbe,
  0xb9, 0x34, 0x67, 0xbd, 0xb9, 0x3d, 0x16, 0xbe, 0xbf, 0x2d, 0xe7, 0x3d,
  0xcd, 0x09, 0x7d, 0xbe, 0x4f, 0x86, 0x80, 0xbe, 0x31, 0x6f, 0xb3, 0x3d,
  0xfc, 0xfa, 0xe0, 0x3d, 0x99, 0xff, 0x07, 0xbe, 0x94, 0xb6, 0x8a, 0x3e,
  0x91, 0x72, 0x88, 0xbe, 0xca, 0xed, 0x81, 0x3e, 0x78, 0x84, 0xe9, 0x3d,
  0x99, 0x77, 0x3b, 0xbe, 0x59, 0x07, 0x6f, 0xbe, 0xf0, 0xef, 0xe0, 0x3d,
  0x54, 0x21, 0x84, 0xbe, 0x09, 0xed, 0x6f, 0x3e, 0x36, 0xb0, 0x87, 0xbe,
  0xe5, 0x35, 0x36, 0xbe, 0x76, 0x08, 0x71, 0x3d, 0xeb, 0x1e, 0x4b, 0xbe,
  0xf9, 0x06, 0xb0, 0x3c, 0x17, 0x4c, 0x79, 0xbe, 0x06, 0xfa, 0x32, 0xbe,
  0xa1, 0x8c, 0xc9, 0x3d, 0x15, 0x42, 0x54, 0xbe, 0x58, 0xc5, 0xba, 0xbd,
  0x9b, 0x25, 0x96, 0xbe, 0xcf, 0x77, 0x68, 0x3e, 0x0a, 0xd1, 0x0a, 0x3e,
  0x1f, 0x82, 0xb9, 0x3c, 0xeb, 0xb6, 0xcf, 0xbc, 0x34, 0x90, 0x89, 0x3e,
  0x58, 0x6a, 0x88, 0x3e, 0x5c, 0xb5, 0x3b, 0xbe, 0x57, 0xce, 0x1c, 0x3e,
  0xed, 0x83, 0x5f, 0x3e, 0x83, 0x97, 0x44, 0x3e, 0xcf, 0x33, 0x76, 0x3e,
  0xca, 0x56, 0x83, 0xbe, 0x22, 0x23, 0x23, 0x3e, 0xd1, 0x52, 0x3c, 0x3e,
  0xd0, 0x4c, 0x29, 0x3e, 0x3c, 0xe6, 0xcd, 0xbd, 0xae, 0x08, 0x23, 0xbe,
  0xb4, 0xd5, 0x36, 0xbd, 0x19, 0xab, 0x1e, 0xbe, 0x18, 0x7c, 0x26, 0x3d,
  0xd0, 0xfc, 0x9b, 0xbc, 0xac, 0xbd, 0x82, 0xbe, 0xae, 0xe2, 0x00, 0x3e,
  0x92, 0x6d, 0x1c, 0x3e, 0x60, 0x79, 0x21, 0xbe, 0x00, 0xf9, 0x73, 0x3c,
  0xdc, 0xa7, 0x5c, 0xbd, 0xa4, 0x2f, 0x97, 0x3d, 0x28, 0x23, 0x83, 0xbe,
  0x00, 0xec, 0x02, 0x3b, 0xc8, 0x6c, 0x26, 0x3d, 0x8b, 0xe1, 0x85, 0xbe,
  0xb0, 0x31, 0x34, 0x3d, 0xbc, 0x85, 0x7c, 0xbe, 0xfc, 0xfa, 0x19, 0x3e,
  0x70, 0x65, 0x58, 0x3e, 0xf4, 0x67, 0x1c, 0x3e, 0x90, 0x71, 0x98, 0x3d,
  0x61, 0x00, 0x43, 0xbe, 0x34, 0x78, 0x46, 0xbd, 0xb0, 0x91, 0x2b, 0x3e,
  0x60, 0xfa, 0xc0, 0x3d, 0x8c, 0xba, 0x80, 0xbe, 0x95, 0xd8, 0x1e, 0xbe,
  0xdb, 0x29, 0x85, 0xbe, 0x3e, 0xab, 0x05, 0xbe, 0x80, 0x23, 0x2d, 0x3b,
  0xea, 0x5a, 0x77, 0x3e, 0x3a, 0x55, 0x4b, 0x3e, 0x2a, 0xbe, 0xf0, 0xbd,
  0xf8, 0x33, 0x4a, 0x3e, 0xc3, 0xd4, 0x6f, 0xbe, 0xc4, 0xc3, 0x8b, 0xbe,
  0x40, 0x19, 0x01, 0x3c, 0x52, 0xd5, 0x81, 0xbd, 0x80, 0xb5, 0x1a, 0x3c,
  0xc0, 0x3b, 0x96, 0x3d, 0x0a, 0x99, 0xd6, 0xbd, 0x0c, 0xfe, 0xa8, 0xbd,
  0xe7, 0xaf, 0x8d, 0xbe, 0xe0, 0xa1, 0xf8, 0x3c, 0x72, 0x18, 0x41, 0x3e,
  0x9a, 0x75, 0x4c, 0xbe, 0x9f, 0xcd, 0x8e, 0x3e, 0x66, 0xa8, 0x1f, 0x3e,
  0x19, 0x4d, 0x82, 0x3e, 0x5d, 0x25, 0x84, 0xbe, 0xde, 0x5a, 0x4c, 0x3e,
  0x2c, 0xfe, 0xa5, 0x3d, 0xe0, 0xd2, 0x25, 0x3c, 0xb4, 0x78, 0x30, 0x3e,
  0x60, 0xa1, 0x5e, 0x3c, 0x92, 0x56, 0x06, 0x3e, 0x75, 0x5d, 0x8e, 0xbe,
  0x96, 0x68, 0x9b, 0xbd, 0x9a, 0x89, 0x1c, 0xbe, 0x32, 0xf8, 0xfd, 0xbd,
  0x9f, 0x5c, 0xed, 0xbc, 0x2e, 0xff, 0x7e, 0x3d, 0x16, 0xd5, 0x22, 0x3e,
  0x73, 0xcd, 0x30, 0x3e, 0xa6, 0x8d, 0xd0, 0x3d, 0x5e, 0xe9, 0x98, 0xbd,
  0x5e, 0x9c, 0x8d, 0x3e, 0x30, 0x0c, 0x01, 0xbe, 0x4e, 0xf4, 0xe7, 0x3d,
  0xe6, 0xd0, 0x91, 0x3d, 0x4f, 0xea, 0x84, 0x3d, 0xa6, 0x52, 0x36, 0x3e,
  0xfc, 0xc9, 0xa3, 0x3c, 0x4d, 0xcf, 0xd2, 0xbd, 0xdd, 0x45, 0x05, 0x3e,
  0xf0, 0x2a, 0x45, 0x3e, 0xe0, 0xcf, 0xf0, 0x3d, 0xb1, 0x22, 0x73, 0x3e,
  0xf2, 0x30, 0x0a, 0x3d, 0x3c, 0x2a, 0x18, 0x3e, 0x45, 0xa7, 0x3a, 0x3e,
  0xf3, 0xe1, 0x5d, 0x3d, 0xf2, 0xb3, 0xab, 0x3e, 0x56, 0xc5, 0xcb, 0xbd,
  0xcd, 0x8f, 0xa4, 0x3e, 0x9d, 0x61, 0x4c, 0x3e, 0x17, 0xce, 0x58, 0xbe,
  0xf1, 0x17, 0x2a, 0xbd, 0xb4, 0xaa, 0x5a, 0x3d, 0xd9, 0xbb, 0x47, 0xbe,
  0xbc, 0x2d, 0x38, 0xbe, 0xed, 0xc2, 0x45, 0x3e, 0x55, 0x8a, 0xbf, 0xbd,
  0x0e, 0x44, 0x58, 0x3e, 0x63, 0x7a, 0xdb, 0x3d, 0x19, 0x81, 0x57, 0x3e,
  0xd1, 0xd2, 0xbf, 0x3d, 0x24, 0xf6, 0xf5, 0x3d, 0xe1, 0x14, 0xd8, 0x3c,
  0x8f, 0x31, 0x2e, 0x3c, 0xcb, 0xb8, 0x7b, 0x3e, 0x9d, 0x6c, 0x3d, 0xbd,
  0x91, 0x4d, 0xe4, 0xbb, 0x3b, 0xeb, 0x53, 0x3e, 0x2b, 0x7d, 0x5f, 0xbe,
  0x56, 0x55, 0xf4, 0x3d, 0xff, 0xe1, 0x89, 0x3e, 0x50, 0xc5, 0x3e, 0x3e,
  0x09, 0xe7, 0x05, 0x3e, 0x16, 0x1c, 0xd7, 0x3c, 0xaa, 0x5a, 0x30, 0x3e,
  0x3a, 0x25, 0x9d, 0x3d, 0xaa, 0x34, 0x52, 0xbd, 0x38, 0x82, 0xf1, 0xbd,
  0xc3, 0x60, 0x80, 0x3d, 0x68, 0x4c, 0xf1, 0x3d, 0x0f, 0xe7, 0x92, 0x3e,
  0x48, 0x25, 0x48, 0x3e, 0x37, 0x00, 0x18, 0x3a, 0xb9, 0xea, 0x91, 0x3d,
  0xb8, 0x0c, 0xd9, 0xbe, 0x93, 0x95, 0xa9, 0xbe, 0x7c, 0xfa, 0x4a, 0xbe,
  0xd6, 0x72, 0x6f, 0xbe, 0xc2, 0xc2, 0x53, 0xbd, 0x2b, 0xd5, 0x23, 0xbe,
  0x3a, 0xde, 0xce, 0x3d, 0xe2, 0x86, 0xd0, 0x3d, 0x94, 0x66, 0x06, 0xbe,
  0x04, 0xc8, 0x14, 0xbc, 0x38, 0xfd, 0x26, 0x3e, 0xdf, 0x4b, 0xd1, 0xbd,
  0x8a, 0xe9, 0xb7, 0xbe, 0xe3, 0xae, 0x5d, 0x3d, 0xab, 0x38, 0x6b, 0xbe,
  0xe4, 0x12, 0x85, 0x3d, 0x13, 0x33, 0xc3, 0xbd, 0xf2, 0x1c, 0x3e, 0xbd,
  0x5b, 0xbf, 0x1a, 0xbe, 0x97, 0xf6, 0xee, 0xba, 0xed, 0x79, 0x6b, 0xbe,
  0x0e, 0xc7, 0xc8, 0xbb, 0x4e, 0x04, 0x9e, 0xbe, 0xaa, 0x56, 0x70, 0x3e,
  0xce, 0x0f, 0x77, 0x3e, 0xa0, 0x70, 0x1c, 0xbd, 0x0b, 0x6b, 0xc4, 0xba,
  0x4f, 0xda, 0xb1, 0x3e, 0xd7, 0x13, 0x2b, 0xbc, 0xef, 0xf6, 0x51, 0x3e,
  0x90, 0x49, 0xa8, 0x3e, 0x27, 0x35, 0x90, 0x3e, 0xe0, 0x90, 0x66, 0x3e,
  0x00, 0x65, 0xad, 0xbc, 0xbe, 0xf2, 0xbd, 0x3d, 0x8e, 0xf2, 0xbe, 0xbc,
  0xb6, 0x03, 0x24, 0x3e, 0x07, 0xee, 0x4f, 0x3e, 0xa0, 0x72, 0x97, 0xbd,
  0x1a, 0xa9, 0xc0, 0x3c, 0xae, 0x94, 0x27, 0x3d, 0x97, 0x00, 0x08, 0xbe,
  0xd4, 0x33, 0x02, 0x3e, 0xe3, 0xee, 0xa6, 0x3e, 0xc0, 0xf2, 0xb5, 0xbc,
  0x8a, 0xef, 0xae, 0x3e, 0x5c, 0x1e, 0xbb, 0x3d, 0x83, 0x18, 0x38, 0x3e,
  0x8e, 0x56, 0x90, 0xbd, 0xfc, 0x29, 0x56, 0x3e, 0x26, 0x44, 0xac, 0x3d,
  0x51, 0x0e, 0xaf, 0x3e, 0x63, 0xed, 0x9c, 0xbd, 0xe7, 0x59, 0x92, 0x3d,
  0xc7, 0xe0, 0xc1, 0xbd, 0x34, 0x99, 0x1c, 0x3d, 0xd6, 0xb9, 0xf3, 0xbd,
  0xb7, 0x7a, 0xf4, 0x3d, 0xe9, 0x53, 0xbd, 0x3e, 0x8e, 0x82, 0xfd, 0x3d,
  0xb9, 0xab, 0xf6, 0x3d, 0xf8, 0x5a, 0x0d, 0x3e, 0x3e, 0x1c, 0x95, 0xbd,
  0x14, 0x68, 0xaa, 0x3d, 0xec, 0xbd, 0x11, 0xbe, 0x93, 0x56, 0xaa, 0x3d,
  0xda, 0xb5, 0xad, 0xbd, 0x3f, 0xca, 0x4b, 0xbe, 0x15, 0x0f, 0x65, 0x3c,
  0xbb, 0x4b, 0xe3, 0x3d, 0xbc, 0x31, 0x80, 0xbd, 0xaa, 0xea, 0x81, 0xbe,
  0x6e, 0x14, 0x57, 0x3e, 0x4f, 0x33, 0x9c, 0xbd, 0x9a, 0x11, 0x09, 0x3d,
  0xf9, 0xb9, 0x2b, 0xbd, 0xfd, 0xca, 0x35, 0x3e, 0x7c, 0xb3, 0x9c, 0x3d,
  0x15, 0x8c, 0x07, 0xbe, 0xd9, 0xe7, 0x36, 0x3e, 0xad, 0x8a, 0x1f, 0x3e,
  0x04, 0x56, 0x5f, 0xbd, 0x7b, 0xea, 0x35, 0xbe, 0x1a, 0x14, 0xb1, 0xbd,
  0xe8, 0x81, 0x35, 0x3d, 0x83, 0x54, 0xe2, 0x3a, 0x06, 0x56, 0x11, 0xbe,
  0xb3, 0x43, 0x2c, 0xbe, 0xe6, 0xc7, 0x64, 0xbc, 0x1f, 0xea, 0x6c, 0xbe,
  0x45, 0x72, 0x38, 0xbd, 0xb1, 0x7f, 0x72, 0xbe, 0x75, 0x07, 0x1b, 0xbe,
  0x54, 0x03, 0x42, 0xbe, 0x11, 0xb6, 0xe1, 0x3d, 0x18, 0x6f, 0xd0, 0x3d,
  0x16, 0x9b, 0xd8, 0xbd, 0x90, 0xe0, 0x6d, 0x3e, 0x6a, 0xa9, 0xaf, 0xbd,
  0xb7, 0xeb, 0xf3, 0x3d, 0xa1, 0x45, 0x81, 0x3d, 0xab, 0x89, 0x5f, 0x3e,
  0xbc, 0x08, 0xd9, 0xbd, 0x73, 0xd6, 0x90, 0xbd, 0x15, 0xd0, 0x38, 0xbd,
  0x51, 0xff, 0x0c, 0xbe, 0xc8, 0x3a, 0xa1, 0xbd, 0xf6, 0x82, 0xd2, 0xbd,
  0xb2, 0xef, 0x8f, 0xbd, 0x3a, 0xa3, 0x45, 0x3e, 0x98, 0xd2, 0xa9, 0xbc,
  0x08, 0x3d, 0x92, 0xbe, 0x61, 0xec, 0x1d, 0x3e, 0xd8, 0x5e, 0x77, 0xbe,
  0x74, 0xa1, 0xc8, 0x3c, 0xd7, 0xca, 0xbf, 0xbd, 0x31, 0xf4, 0x3e, 0x3e,
  0xe5, 0x6e, 0x58, 0x3e, 0xfe, 0xfc, 0x80, 0x3e, 0x26, 0xfa, 0xff, 0xff,
  0x04, 0x00, 0x00, 0x00, 0x40, 0x00, 0x00, 0x00, 0xd0, 0x2d, 0x0a, 0xbe,
  0xeb, 0x54, 0xdc, 0xbc, 0x00, 0x00, 0x00, 0x00, 0xa3, 0xfe, 0xdb, 0xbc,
  0xcb, 0x0e, 0xdb, 0xbc, 0x41, 0x3f, 0x46, 0xbd, 0x35, 0xba, 0x6a, 0xbd,
  0x14, 0x84, 0x10, 0xbc, 0xd5, 0x1a, 0x3b, 0xbc, 0x1d, 0x74, 0x0c, 0xbe,
  0xae, 0x8e, 0x15, 0xbe, 0x25, 0x1c, 0x93, 0xbc, 0x00, 0x00, 0x00, 0x00,
  0x9d, 0x1f, 0x0c, 0xbe, 0x17, 0xef, 0x46, 0xbd, 0xb4, 0xf1, 0xdb, 0xbc,
  0x72, 0xfa, 0xff, 0xff, 0x04, 0x00, 0x00, 0x00, 0x40, 0x00, 0x00, 0x00,
  0xd0, 0xa6, 0x53, 0xbd, 0x65, 0xd5, 0xc5, 0xbc, 0x00, 0x00, 0x00, 0x00,
  0x41, 0xcd, 0x00, 0x3e, 0xf0, 0x40, 0xa4, 0xbd, 0xd9, 0x7d, 0xac, 0xba,
  0x5d, 0xf3, 0xb0, 0x3b, 0x7f, 0xc5, 0x0f, 0x3e, 0x1f, 0x63, 0xb6, 0x3c,
  0x9f, 0x76, 0x04, 0x3e, 0x50, 0x47, 0x25, 0x3d, 0xc6, 0xaa, 0x34, 0xbd,
  0x0e, 0x88, 0x1f, 0x3e, 0x80, 0x4b, 0x85, 0xbc, 0x1c, 0x70, 0x16, 0x3e,
  0x29, 0x1a, 0xde, 0xbc, 0xbe, 0xfa, 0xff, 0xff, 0x04, 0x00, 0x00, 0x00,
  0x20, 0x00, 0x00, 0x00, 0x50, 0x65, 0xbb, 0xbd, 0xf0, 0x2e, 0xa8, 0xbd,
  0x5a, 0xdf, 0x62, 0x3d, 0x00, 0x00, 0x00, 0x00, 0xd1, 0x48, 0x03, 0x3c,
  0x00, 0x00, 0x00, 0x00, 0x00, 0xde, 0x95, 0xbb, 0xeb, 0x88, 0x93, 0x3c,
  0xea, 0xfa, 0xff, 0xff, 0x04, 0x00, 0x00, 0x00, 0xf0, 0x00, 0x00, 0x00,
  0x2c, 0xe7, 0x72, 0xbb, 0xdf, 0x94, 0x2d, 0x3d, 0xe5, 0x5e, 0x9e, 0x3d,
  0x06, 0x37, 0x4b, 0x3d, 0x6d, 0xbc, 0xd1, 0x3d, 0xe8, 0x31, 0x4d, 0x3d,
  0x49, 0xce, 0xb9, 0x3d, 0x83, 0x92, 0x33, 0x3d, 0x9a, 0xa8, 0x4e, 0x3d,
  0x13, 0x9f, 0x76, 0x3b, 0x14, 0x1f, 0xed, 0x3c, 0x7d, 0x18, 0x73, 0x3d,
  0xc5, 0x14, 0x44, 0x3d, 0x63, 0x9e, 0x80, 0x3d, 0x71, 0x41, 0x9a, 0x3d,
  0x28, 0x6b, 0xaf, 0x3c, 0x3e, 0x89, 0x0d, 0x3c, 0x86, 0x0e, 0x73, 0x3d,
  0xe7, 0x22, 0xa8, 0x3d, 0x45, 0xf0, 0x72, 0x3d, 0x93, 0xad, 0x85, 0x3d,
  0xc3, 0x78, 0xa6, 0xbb, 0xb9, 0xd9, 0x25, 0x3d, 0x5c, 0x91, 0x4e, 0x3b,
  0xc3, 0xf5, 0x15, 0x3d, 0x62, 0x1f, 0xb3, 0x3d, 0x70, 0x7a, 0xb7, 0x3d,
  0x73, 0x65, 0xc0, 0x3d, 0xb9, 0x3d, 0x95, 0x3d, 0x02, 0x75, 0x78, 0x3d,
  0x6b, 0x7b, 0xe8, 0x3d, 0x12, 0x5d, 0xa4, 0x3d, 0xc9, 0x8e, 0xbe, 0x3d,
  0xf5, 0x08, 0x54, 0x3d, 0xd2, 0x4d, 0x60, 0x3d, 0xf0, 0xbd, 0x72, 0x3d,
  0xde, 0xbf, 0xd8, 0x3d, 0x7f, 0x9c, 0xb9, 0x3d, 0xad, 0xe3, 0xf5, 0x3d,
  0xb3, 0x79, 0xad, 0x3d, 0xb4, 0xa4, 0x9e, 0x3d, 0x01, 0xfd, 0xd6, 0x3d,
  0x76, 0x10, 0x96, 0x3d, 0xb3, 0xcf, 0x89, 0x3d, 0x64, 0xc6, 0x97, 0x3d,
  0x57, 0xb6, 0xaa, 0x3d, 0x14, 0xec, 0xb5, 0x3d, 0xf8, 0x26, 0x28, 0x3d,
  0xbf, 0x2b, 0xf2, 0x3c, 0x96, 0xb2, 0x92, 0x3d, 0x01, 0x46, 0x85, 0x3d,
  0x1d, 0x47, 0xdf, 0x3c, 0xa9, 0x4d, 0x1a, 0x3d, 0x55, 0x03, 0x7d, 0x3d,
  0xd3, 0xa6, 0x15, 0x3d, 0xbc, 0x66, 0xb3, 0xbb, 0x59, 0x93, 0x57, 0x3c,
  0xe8, 0x1e, 0xa5, 0xbc, 0x48, 0x92, 0xc4, 0xbb, 0x3d, 0x9b, 0x98, 0x3c,
  0xe6, 0xfb, 0xff, 0xff, 0x04, 0x00, 0x00, 0x00, 0x00, 0x02, 0x00, 0x00,
  0x53, 0x10, 0xa3, 0x3e, 0x88, 0x78, 0x3f, 0x3e, 0x54, 0x77, 0xa3, 0xbe,
  0xda, 0xc0, 0x3d, 0xbe, 0xe9, 0xf3, 0x8e, 0x3e, 0xe8, 0x06, 0x89, 0xbd,
  0xcd, 0x2b, 0xda, 0x3e, 0xf8, 0xcb, 0xdc, 0xbd, 0x45, 0x42, 0x4a, 0x3e,
  0x00, 0x2d, 0xc0, 0x3e, 0x5c, 0x3c, 0x38, 0x3e, 0x80, 0x0e, 0xa1, 0x3e,
  0x64, 0xc4, 0xe6, 0x3e, 0xff, 0x3a, 0xf2, 0x3e, 0x4a, 0x12, 0x0f, 0x3d,
  0x9d, 0xe4, 0x69, 0xbe, 0x2b, 0xc9, 0xeb, 0x3d, 0xa6, 0xb9, 0xb6, 0x3e,
  0x1c, 0x09, 0xac, 0x3e, 0x4a, 0xca, 0x70, 0xbe, 0x3e, 0x97, 0xa7, 0xbe,
  0x8f, 0xe1, 0x8d, 0xbe, 0xb3, 0x53, 0xb5, 0xbe, 0xed, 0xff, 0xa5, 0x3c,
  0x08, 0x92, 0x8e, 0xbe, 0x2c, 0x92, 0xa7, 0x3e, 0xc9, 0xcd, 0x28, 0x3e,
  0xa0, 0x2a, 0x8f, 0xbe, 0x68, 0x40, 0xc8, 0xbe, 0x01, 0x66, 0xb5, 0x3e,
  0x4b, 0xf6, 0xd6, 0x3e, 0x57, 0x47, 0x43, 0xbe, 0x2b, 0xf9, 0x8c, 0xbd,
  0xee, 0x01, 0xc3, 0x3e, 0x00, 0x07, 0x30, 0x3d, 0x4d, 0xad, 0x2e, 0x3e,
  0xa9, 0xe5, 0x29, 0xbe, 0xd6, 0xc5, 0x7a, 0xbe, 0x45, 0x29, 0xb1, 0x3d,
  0x00, 0x7f, 0xab, 0x3e, 0xd9, 0x65, 0x9a, 0x3e, 0xab, 0xda, 0x59, 0xbe,
  0x52, 0x76, 0xc7, 0x3e, 0x30, 0xa9, 0x45, 0x3e, 0x70, 0xc8, 0xb5, 0xbd,
  0x8b, 0xe6, 0xfa, 0xbe, 0xc9, 0xf1, 0x94, 0x3e, 0x79, 0xda, 0x9c, 0xbe,
  0xd4, 0x4d, 0xec, 0xbe, 0x30, 0x77, 0x8c, 0xbd, 0xe4, 0x10, 0x86, 0xbe,
  0xf8, 0xfc, 0x36, 0x3e, 0x88, 0x49, 0x26, 0xbe, 0x30, 0x96, 0x94, 0xbd,
  0x18, 0x4c, 0x83, 0xbe, 0x68, 0x87, 0xe9, 0xbe, 0xec, 0x52, 0xad, 0x3e,
  0x1c, 0x5b, 0xf4, 0xbe, 0x40, 0x72, 0x8b, 0xbe, 0x60, 0xcd, 0xc6, 0x3e,
  0xa0, 0xe2, 0x21, 0x3e, 0xf4, 0xe2, 0x9b, 0xbe, 0x38, 0x04, 0x30, 0xbe,
  0x88, 0x7d, 0x7f, 0xbe, 0xd0, 0x2a, 0x14, 0x3c, 0x33, 0xf1, 0xf1, 0xbe,
  0xd8, 0x30, 0xdc, 0x3e, 0x60, 0x36, 0x74, 0xbe, 0x3d, 0x8e, 0x6b, 0xbe,
  0x76, 0x85, 0x8f, 0xbb, 0x43, 0xf3, 0x0d, 0x3e, 0xe0, 0x05, 0x4c, 0x3d,
  0xe8, 0x07, 0x78, 0xbe, 0x72, 0xad, 0x2e, 0x3e, 0x72, 0xbf, 0xac, 0x3d,
  0xe9, 0x75, 0xcb, 0xbe, 0xd0, 0x1e, 0xdc, 0xbe, 0x7f, 0x1a, 0x7a, 0xbe,
  0xc0, 0x8a, 0x39, 0xbe, 0x52, 0x1f, 0x93, 0x3e, 0xc0, 0x86, 0x5c, 0xbd,
  0x00, 0x0f, 0x8d, 0xbc, 0x00, 0xde, 0x06, 0x3c, 0xa0, 0x50, 0x9e, 0xbd,
  0x00, 0x13, 0xbf, 0x3e, 0x58, 0x88, 0x2c, 0xbe, 0xac, 0xb2, 0xc7, 0xbe,
  0xac, 0xc1, 0xc2, 0x3e, 0x48, 0x77, 0x16, 0x3e, 0x24, 0xd7, 0xd8, 0xbe,
  0xc8, 0xb3, 0xa6, 0xbe, 0xc0, 0xb2, 0xae, 0xbc, 0x20, 0x6a, 0x87, 0xbe,
  0x58, 0x24, 0xaa, 0xbe, 0x20, 0xc4, 0x39, 0xbe, 0x00, 0xba, 0x0f, 0x3b,
  0xb0, 0x81, 0x72, 0xbe, 0xf7, 0x8c, 0x0c, 0x3e, 0xe0, 0xf9, 0xaf, 0xbe,
  0x71, 0x03, 0xd2, 0x3e, 0x60, 0x7f, 0x98, 0x3e, 0xec, 0x6d, 0xb9, 0xbe,
  0xf8, 0xf2, 0x8d, 0xbe, 0x20, 0x3f, 0x81, 0xbd, 0x98, 0x34, 0x9e, 0xbe,
  0xcd, 0xb7, 0x98, 0xbe, 0x07, 0xf1, 0x3f, 0xbe, 0xa8, 0xdc, 0x36, 0x3e,
  0x60, 0xad, 0x28, 0xbe, 0x91, 0xed, 0xf4, 0xb9, 0xc0, 0x2c, 0x2e, 0xbd,
  0x94, 0x31, 0x03, 0x3e, 0xd0, 0x5c, 0x87, 0xbd, 0xc4, 0x6f, 0x94, 0xbe,
  0xc0, 0x35, 0x8d, 0x3e, 0x1c, 0x60, 0xba, 0xbe, 0x99, 0x09, 0x35, 0x3d,
  0x18, 0x4e, 0x38, 0xbe, 0x0a, 0x06, 0x07, 0xbe, 0x80, 0x2b, 0x49, 0x3c,
  0x84, 0x1e, 0xa2, 0x3e, 0xe5, 0x02, 0xee, 0xbe, 0x2b, 0x65, 0xfe, 0xbd,
  0xf8, 0x83, 0xde, 0xbe, 0xc8, 0xb7, 0x8a, 0x3e, 0x2a, 0xc2, 0xcd, 0xbd,
  0xe0, 0x9e, 0x9e, 0x3e, 0xb0, 0xa3, 0xd5, 0xbe, 0xf2, 0xfd, 0xff, 0xff,
  0x04, 0x00, 0x00, 0x00, 0x00, 0x02, 0x00, 0x00, 0x70, 0x1d, 0xdc, 0x3e,
  0x40, 0xe8, 0x01, 0xbf, 0x60, 0x38, 0x97, 0x3e, 0xc8, 0xb1, 0xd0, 0x3e,
  0xe1, 0x20, 0x87, 0x3e, 0x20, 0x2b, 0xcf, 0x3e, 0xd0, 0xb7, 0xbd, 0xbd,
  0x74, 0xb2, 0xb7, 0xbe, 0x88, 0xca, 0x42, 0xbe, 0xc0, 0xe0, 0xa3, 0xbd,
  0x3d, 0x08, 0x32, 0x3e, 0x68, 0x0b, 0x27, 0x3e, 0xa0, 0x94, 0xa1, 0xbd,
  0xf4, 0x6e, 0xbb, 0x3e, 0x34, 0xe6, 0x9c, 0x3e, 0xb4, 0xc6, 0xef, 0xbe,
  0x4c, 0x0d, 0xa6, 0xbe, 0x40, 0x73, 0xae, 0x3d, 0xa4, 0x4b, 0x9f, 0xbe,
  0x80, 0x10, 0x6e, 0x3d, 0x1c, 0x42, 0x9f, 0xbe, 0x1c, 0x86, 0xe0, 0xbe,
  0x1c, 0x83, 0xab, 0xbe, 0x24, 0x98, 0x86, 0xbe, 0xe3, 0x48, 0x84, 0xbe,
  0x20, 0x04, 0xc1, 0xbe, 0x85, 0xf1, 0x87, 0x3e, 0xc0, 0x0d, 0xc4, 0xbc,
  0x20, 0x68, 0xe1, 0xbd, 0x78, 0x10, 0x75, 0xbe, 0xc0, 0x96, 0x32, 0xbd,
  0x87, 0x88, 0xf4, 0x3d, 0x23, 0x27, 0x39, 0x3e, 0x19, 0x82, 0x47, 0x3e,
  0xab, 0xbf, 0x99, 0x3e, 0xd0, 0x14, 0x81, 0x3e, 0xb9, 0xe2, 0x2c, 0x3e,
  0x30, 0x3a, 0x89, 0xbd, 0xca, 0x3c, 0xa6, 0x3e, 0x50, 0x04, 0xc0, 0x3d,
  0xd6, 0x22, 0xda, 0x3d, 0x35, 0x8a, 0xc8, 0x3e, 0x62, 0x09, 0x9b, 0x3e,
  0x90, 0x66, 0x2b, 0xbe, 0xd4, 0x24, 0xbe, 0x3e, 0x40, 0x6a, 0xf4, 0x3e,
  0x05, 0xb8, 0xc1, 0x3e, 0xbb, 0x3d, 0xc7, 0x3e, 0x12, 0x44, 0xd4, 0x3e,
  0x53, 0x8b, 0x1d, 0xbe, 0xf0, 0xab, 0x04, 0xbd, 0x28, 0x32, 0xe0, 0x3e,
  0x8e, 0x9f, 0x7b, 0x3e, 0xb8, 0x9d, 0x4b, 0xbe, 0x30, 0xdc, 0xf6, 0x3d,
  0xf8, 0xae, 0x6a, 0x3e, 0xa6, 0xc7, 0x28, 0xbe, 0x24, 0x4c, 0x15, 0xbe,
  0x01, 0x4f, 0x06, 0x3f, 0x60, 0xa2, 0x3a, 0x3e, 0x18, 0x84, 0x73, 0xbe,
  0x44, 0x98, 0xac, 0x3e, 0xd8, 0xa8, 0x1b, 0xbe, 0xbe, 0x20, 0xda, 0x3d,
  0xbc, 0xaf, 0xcc, 0x3e, 0x5c, 0x97, 0x64, 0xba, 0x7a, 0xc4, 0x43, 0x3e,
  0xd8, 0xc1, 0x4d, 0x3e, 0x2a, 0xf6, 0xb4, 0x3e, 0xe0, 0x2f, 0x85, 0x3d,
  0x37, 0xef, 0xd3, 0x3e, 0x7a, 0xac, 0x4a, 0x3e, 0x80, 0xbf, 0x21, 0xbe,
  0x80, 0xab, 0xbe, 0xbe, 0x5c, 0x7b, 0x5e, 0x3e, 0x80, 0x55, 0x37, 0x3e,
  0x58, 0x2f, 0x98, 0x3e, 0xfc, 0xed, 0xe9, 0xbe, 0xb0, 0x71, 0xeb, 0xbd,
  0x3b, 0xa0, 0x8f, 0xbd, 0x2a, 0x21, 0x01, 0xbe, 0xfc, 0x43, 0x11, 0x3f,
  0xd3, 0x55, 0xb4, 0xbe, 0x98, 0xb7, 0x57, 0x3e, 0x10, 0x59, 0x46, 0x3e,
  0x68, 0xaf, 0xae, 0x3e, 0xe8, 0x31, 0x6d, 0xbe, 0x42, 0x73, 0xfb, 0xbe,
  0x2a, 0xf2, 0x9a, 0x3e, 0xc8, 0x7f, 0xff, 0x3d, 0xf4, 0x57, 0x17, 0x3e,
  0x10, 0xba, 0x83, 0xbe, 0x8b, 0xdb, 0xc0, 0x3e, 0xbc, 0x1b, 0x8e, 0x3e,
  0x76, 0xcd, 0xcd, 0x3e, 0x43, 0x69, 0xe4, 0x3e, 0x10, 0x6d, 0xdc, 0xbe,
  0xa4, 0xbb, 0x83, 0xbe, 0x42, 0x36, 0xec, 0x3e, 0x40, 0xec, 0xbc, 0xbe,
  0x04, 0xcd, 0xed, 0x3e, 0x04, 0xe7, 0x9b, 0x3e, 0x80, 0x71, 0xd8, 0xbc,
  0xa5, 0x06, 0x89, 0xbd, 0x00, 0xbb, 0x1c, 0xbe, 0xda, 0x55, 0x3b, 0x3e,
  0x60, 0x88, 0xe2, 0xbe, 0xa0, 0x47, 0xbd, 0x3d, 0x90, 0xb8, 0xa5, 0xbe,
  0x90, 0x61, 0x3f, 0x3e, 0x6c, 0x1e, 0xca, 0x3e, 0xf0, 0x16, 0x5a, 0x3e,
  0x14, 0x7a, 0xb2, 0xbe, 0xe4, 0x6d, 0x9b, 0xbe, 0xd2, 0x52, 0xf9, 0x3d,
  0x20, 0x82, 0x4b, 0xbd, 0xb8, 0x02, 0x06, 0xbe, 0x4c, 0x32, 0xe7, 0xbe,
  0x60, 0xdc, 0x00, 0xbe, 0x65, 0x78, 0xc5, 0xbe, 0xaf, 0x34, 0x13, 0x3d,
  0x27, 0xc0, 0x8e, 0x3e, 0x3b, 0x78, 0xa0, 0x3e, 0xd8, 0xe4, 0x69, 0xbe,
  0x2f, 0x64, 0x6c, 0xbe, 0xa0, 0xd3, 0x8a, 0xbd, 0x39, 0xeb, 0x7f, 0x3d,
  0x3c, 0x97, 0xa8, 0xbe, 0x00, 0x00, 0x06, 0x00, 0x08, 0x00, 0x04, 0x00,
  0x06, 0x00, 0x00, 0x00, 0x04, 0x00, 0x00, 0x00, 0x00, 0x0f, 0x00, 0x00,
  0x03, 0x55, 0xb4, 0x3e, 0x72, 0xb0, 0x00, 0xbe, 0x60, 0x4c, 0x68, 0x3d,
  0xcc, 0x4b, 0xdf, 0x3c, 0x0e, 0xba, 0x37, 0x3e, 0xb6, 0xb1, 0xd1, 0x3d,
  0xa3, 0xd9, 0xca, 0xbd, 0x35, 0xf6, 0x43, 0xbe, 0x55, 0x2b, 0x04, 0x3e,
  0x09, 0xf1, 0xca, 0xbb, 0xc0, 0x9f, 0x1e, 0xbf, 0x01, 0x0b, 0x51, 0x3e,
  0x7f, 0x07, 0x8f, 0x3e, 0xfd, 0xe7, 0x4e, 0xbe, 0xde, 0x7f, 0x07, 0xbe,
  0xbd, 0xcb, 0x1f, 0xbd, 0x08, 0x03, 0xc4, 0x3e, 0x0d, 0x48, 0x14, 0x3e,
  0xd8, 0xfd, 0x2b, 0x3e, 0xef, 0xe9, 0x0c, 0x3e, 0x1e, 0x71, 0xc0, 0x3b,
  0xf5, 0x34, 0x30, 0xbe, 0xac, 0xdb, 0x66, 0x3e, 0x77, 0x01, 0x7c, 0xbd,
  0x34, 0x12, 0x6d, 0x3e, 0xbd, 0x0f, 0x30, 0xbd, 0x12, 0x54, 0xe8, 0xbc,
  0xc0, 0xff, 0x43, 0xbe, 0xcb, 0xd7, 0x9d, 0x3e, 0xdb, 0xec, 0xf5, 0xbd,
  0xcd, 0x46, 0xc1, 0x3e, 0x91, 0x3d, 0x2f, 0x3c, 0x8a, 0xeb, 0xbe, 0x3e,
  0xa3, 0x18, 0xd4, 0xbd, 0xc0, 0x7f, 0x37, 0x3e, 0xc6, 0x80, 0x47, 0x3e,
  0x33, 0x85, 0x82, 0x3e, 0xfa, 0xd1, 0x08, 0xbe, 0x1b, 0x8e, 0xa5, 0xbd,
  0x13, 0x53, 0x51, 0x3e, 0xe4, 0xf6, 0x2b, 0x3e, 0x57, 0x64, 0x17, 0x3e,
  0x77, 0xc1, 0x10, 0xbe, 0x24, 0xaa, 0xae, 0x3c, 0xd5, 0xc4, 0x1e, 0xbe,
  0x3d, 0xd6, 0x41, 0x3e, 0xc2, 0x8f, 0xe5, 0x3b, 0xc1, 0x0c, 0xdb, 0xbd,
  0x7a, 0xa1, 0xd9, 0x3d, 0xa0, 0xd8, 0x25, 0xbe, 0x36, 0x45, 0x52, 0x3e,
  0xfa, 0x39, 0x89, 0x3e, 0x91, 0x2c, 0xac, 0x3c, 0xc5, 0x8e, 0x3e, 0x3e,
  0x1b, 0x2f, 0x08, 0x3e, 0xe3, 0x48, 0x8d, 0x3e, 0xa4, 0xa4, 0x10, 0x3e,
  0x38, 0x95, 0xdd, 0x3d, 0x7c, 0x0e, 0xf1, 0xbe, 0x7a, 0xeb, 0xc3, 0x3c,
  0xf3, 0xb8, 0x23, 0x3e, 0xe7, 0xb6, 0x83, 0xbe, 0x7c, 0x22, 0xde, 0xbd,
  0xbe, 0xba, 0x1f, 0xbd, 0x80, 0xf1, 0xa0, 0xbd, 0x00, 0x81, 0x16, 0x3e,
  0x92, 0x93, 0x73, 0x3e, 0x5c, 0x6c, 0xaa, 0xba, 0x40, 0xbd, 0x2e, 0xbe,
  0xac, 0x35, 0x0d, 0x3d, 0xd5, 0x15, 0x4c, 0x3e, 0xc4, 0x62, 0xc9, 0xbc,
  0x01, 0xde, 0xa6, 0x3d, 0x94, 0x1c, 0x4c, 0x3e, 0x50, 0x81, 0x18, 0xbf,
  0x05, 0xc4, 0x9e, 0x3e, 0xcf, 0xa5, 0x84, 0x3c, 0x00, 0x11, 0x40, 0xbe,
  0xec, 0x8f, 0x02, 0x3e, 0xc9, 0x76, 0x53, 0x3e, 0x24, 0xac, 0x84, 0x3e,
  0x2a, 0x18, 0x40, 0xbe, 0x4a, 0xaf, 0xa5, 0xbd, 0xf9, 0x1a, 0xc1, 0x3d,
  0x72, 0x4e, 0x70, 0xbd, 0xd6, 0xbc, 0x21, 0xbe, 0xbe, 0x6b, 0x92, 0xba,
  0x77, 0x2d, 0x80, 0x3e, 0x4e, 0x4d, 0x83, 0x3e, 0xfb, 0x2e, 0x94, 0x3d,
  0xb0, 0x21, 0x4a, 0xbd, 0x1b, 0xb2, 0x57, 0x3e, 0x61, 0xdc, 0x3e, 0x3e,
  0x9f, 0x15, 0x07, 0x3e, 0x81, 0xc8, 0x5b, 0x3c, 0xb6, 0x42, 0x5f, 0xbe,
  0x91, 0x8e, 0x25, 0x3e, 0x14, 0xff, 0x4e, 0xbe, 0x3a, 0xb7, 0x36, 0x3e,
  0x05, 0x80, 0x2d, 0x3e, 0x36, 0xca, 0xef, 0x3c, 0xe3, 0x5c, 0x40, 0x3e,
  0x87, 0x55, 0x45, 0x3e, 0x79, 0x1c, 0x90, 0x3e, 0x21, 0x61, 0xa4, 0xbc,
  0xd2, 0x98, 0xaa, 0x3e, 0x52, 0xe2, 0xd7, 0xbe, 0xea, 0x79, 0x4e, 0x3d,
  0x69, 0x9d, 0x4f, 0xbe, 0x03, 0x38, 0x03, 0x3d, 0xdc, 0x64, 0x7d, 0x3e,
  0xe5, 0x59, 0xb2, 0x3d, 0xc0, 0xc0, 0xe0, 0x3b, 0xfd, 0xf7, 0x01, 0x3e,
  0xd2, 0xf2, 0x42, 0xbe, 0x50, 0x6a, 0x1f, 0x3e, 0x6c, 0xe4, 0x6c, 0xbd,
  0xe6, 0xd0, 0x02, 0x3e, 0x25, 0x7c, 0x51, 0x3e, 0x93, 0x57, 0xa0, 0x3d,
  0x1f, 0x8b, 0xed, 0x3d, 0x68, 0xc0, 0x93, 0xbd, 0x16, 0xc7, 0xf5, 0xbe,
  0x36, 0x68, 0xc5, 0x3d, 0x12, 0x13, 0x49, 0x3e, 0x55, 0xce, 0x75, 0xbd,
  0x84, 0xe1, 0xab, 0x3e, 0x52, 0x9a, 0xc9, 0x3d, 0x0f, 0xc4, 0x9a, 0xbd,
  0x75, 0x25, 0x5c, 0xbe, 0x7f, 0xe6, 0x8c, 0xbe, 0x3f, 0x88, 0x5f, 0x3e,
  0x92, 0x61, 0x9b, 0x3d, 0xfa, 0x80, 0x0c, 0x3e, 0x18, 0xcf, 0x4e, 0x3c,
  0x86, 0x6a, 0x35, 0xbe, 0x78, 0x9f, 0xaa, 0x3e, 0x5d, 0x34, 0xb8, 0x3a,
  0xeb, 0xf2, 0xf9, 0xbe, 0xa6, 0x80, 0x00, 0x3e, 0x08, 0x5c, 0xaa, 0x3e,
  0x7f, 0x5a, 0x0a, 0xbe, 0x7d, 0x59, 0xd7, 0x3d, 0x75, 0xa0, 0x6b, 0xbe,
  0xbd, 0x9c, 0x96, 0xbd, 0xf2, 0xb2, 0x5f, 0x3e, 0x18, 0x47, 0x37, 0x3d,
  0x22, 0x84, 0x5f, 0x3e, 0xbb, 0x90, 0x87, 0x3d, 0xfc, 0x6a, 0x41, 0xbe,
  0x84, 0xb8, 0xdc, 0x3d, 0xfb, 0x03, 0x19, 0x3e, 0x3f, 0x61, 0x8d, 0x3e,
  0x58, 0x66, 0x4b, 0x3e, 0xd9, 0xef, 0x93, 0xbe, 0xdf, 0x92, 0xa0, 0x3e,
  0x68, 0xe1, 0xa1, 0x3d, 0xa4, 0xe8, 0x28, 0x3d, 0xc8, 0xf3, 0x66, 0x3d,
  0x5c, 0x24, 0x4e, 0xbe, 0xc7, 0x5f, 0x7b, 0x3e, 0x9a, 0x17, 0x43, 0xbc,
  0xe6, 0xd8, 0x6f, 0x3e, 0x1a, 0x0b, 0x63, 0x3e, 0x6d, 0xb7, 0x8e, 0xbd,
  0x65, 0x81, 0x12, 0x3e, 0x0a, 0x43, 0xa9, 0x3d, 0x62, 0x66, 0x85, 0xbd,
  0x4f, 0x96, 0x6b, 0x3e, 0x61, 0x52, 0xca, 0x3e, 0x80, 0x83, 0x3d, 0xbe,
  0x67, 0xdb, 0xde, 0xbd, 0x53, 0xea, 0x12, 0xbd, 0x92, 0x7c, 0xba, 0xbd,
  0xe2, 0x4f, 0x1e, 0xbe, 0x0b, 0xd5, 0x0f, 0x3d, 0x09, 0xd4, 0x37, 0x3e,
  0x07, 0x18, 0x58, 0x3d, 0x6c, 0xb2, 0x09, 0x3e, 0x81, 0xd7, 0x3b, 0xbe,
  0x33, 0x29, 0x7e, 0xbd, 0xd2, 0x09, 0x14, 0xbe, 0x2e, 0x1b, 0xbb, 0x3d,
  0xb0, 0xe5, 0x66, 0x3e, 0x47, 0x23, 0x65, 0x3d, 0x8e, 0x85, 0x2d, 0xbe,
  0x57, 0x47, 0x49, 0xbe, 0xe5, 0xdf, 0x8b, 0x3e, 0xa3, 0x55, 0x81, 0x3e,
  0xe6, 0xed, 0x03, 0xbd, 0x82, 0xad, 0x44, 0x3d, 0x44, 0x98, 0x51, 0x3e,
  0x1e, 0x35, 0xe0, 0x3d, 0xab, 0x32, 0x0e, 0xbe, 0xe6, 0x85, 0x67, 0x3e,
  0x09, 0xd2, 0x75, 0x3e, 0xd1, 0x75, 0x37, 0xbe, 0xa0, 0xc0, 0x75, 0x3d,
  0xb8, 0x6c, 0x45, 0x3e, 0xe5, 0xbe, 0xb7, 0xbc, 0xe9, 0x61, 0x82, 0x3d,
  0xfb, 0x74, 0x57, 0xbd, 0x9d, 0x5e, 0x51, 0xbe, 0x2b, 0xb9, 0x40, 0x3e,
  0x89, 0x12, 0xe9, 0xbd, 0xb5, 0x72, 0xb2, 0x3d, 0x4d, 0x76, 0x84, 0x3d,
  0xd0, 0x58, 0x95, 0x3d, 0xb3, 0x6c, 0xbf, 0x3d, 0x35, 0x09, 0x4e, 0xbe,
  0xd0, 0x9a, 0x21, 0xbe, 0x79, 0x1a, 0x3a, 0xbd, 0x5d, 0x01, 0x83, 0x3e,
  0xab, 0x80, 0x8b, 0xbd, 0x05, 0x3a, 0x04, 0x3e, 0x3f, 0x80, 0x5f, 0xbe,
  0x69, 0x15, 0x0c, 0x3e, 0x13, 0x57, 0x7d, 0xbe, 0x3f, 0x18, 0x15, 0xbe,
  0x4c, 0xa5, 0x38, 0xbc, 0x89, 0xe9, 0xec, 0x3d, 0x22, 0x98, 0x2f, 0xbd,
  0xd7, 0x9c, 0xa2, 0x3d, 0xfb, 0x13, 0xae, 0xbd, 0x86, 0x23, 0x8b, 0xbb,
  0xc2, 0xaf, 0x09, 0x3e, 0x35, 0xe3, 0x16, 0xbe, 0x38, 0xc0, 0x00, 0xbe,
  0x1a, 0xa3, 0x70, 0x3d, 0x84, 0x45, 0x8e, 0x3e, 0x75, 0x9e, 0x62, 0x3e,
  0xa6, 0xd5, 0x4f, 0xbe, 0xfc, 0x85, 0x78, 0x3c, 0xe6, 0x9c, 0x40, 0xbd,
  0x33, 0x36, 0xcc, 0xbe, 0xd1, 0xe5, 0x37, 0x3c, 0x30, 0xf3, 0x2c, 0xbe,
  0x1a, 0xba, 0x24, 0x3e, 0x79, 0xb5, 0xe3, 0xbc, 0xe5, 0x7a, 0x05, 0x3c,
  0x79, 0xb9, 0x52, 0x3e, 0x77, 0xd2, 0xb6, 0xbd, 0x00, 0x24, 0x59, 0xba,
  0xa3, 0x78, 0x8b, 0x3e, 0x20, 0x6a, 0x8b, 0xbe, 0x6d, 0x6b, 0x9f, 0x3d,
  0xb1, 0x5a, 0x1f, 0x3e, 0x29, 0xc2, 0x5a, 0xbe, 0x91, 0x33, 0xe8, 0xbb,
  0xc9, 0xfc, 0x00, 0xbe, 0x15, 0xc9, 0xb9, 0xbc, 0x7f, 0x91, 0x87, 0x3e,
  0x52, 0xb1, 0xd2, 0xb9, 0x44, 0xdf, 0xd7, 0xbd, 0x5c, 0xc1, 0x84, 0x3e,
  0xd2, 0x86, 0x51, 0x3d, 0x10, 0x68, 0x1c, 0x3e, 0xf0, 0xe5, 0x1f, 0xbe,
  0x86, 0x3a, 0x82, 0xbe, 0xc4, 0xf2, 0x0b, 0x3e, 0x03, 0xea, 0x3b, 0x3d,
  0xd1, 0x57, 0x83, 0xbd, 0x18, 0x80, 0x14, 0x3e, 0xe4, 0xdf, 0xf6, 0x3b,
  0xaa, 0x25, 0x1c, 0x3d, 0xfa, 0xab, 0x30, 0xbe, 0x9e, 0x90, 0xd6, 0x3d,
  0x40, 0x87, 0x5f, 0x3e, 0x7c, 0xd0, 0x1b, 0xbe, 0xeb, 0x15, 0x27, 0x3e,
  0xce, 0xb1, 0x0d, 0x3e, 0x13, 0x66, 0x6f, 0xbe, 0x47, 0x99, 0x67, 0x3d,
  0xf4, 0x36, 0xef, 0x3c, 0x78, 0x6e, 0x37, 0x3e, 0x45, 0x32, 0x13, 0xbe,
  0x98, 0xb6, 0x18, 0x3e, 0xa8, 0x8a, 0xc8, 0xbc, 0x86, 0x77, 0x97, 0xbd,
  0x79, 0xe7, 0x92, 0xbe, 0x54, 0x71, 0x97, 0x3e, 0x37, 0x47, 0x45, 0xbe,
  0x1c, 0x2e, 0xb2, 0xbe, 0xa9, 0xd6, 0xa6, 0xbd, 0x11, 0x74, 0x72, 0x3e,
  0xbf, 0xf5, 0xa6, 0xbd, 0x1b, 0x38, 0x49, 0xbd, 0x27, 0xc8, 0xde, 0x3e,
  0x42, 0x7d, 0x18, 0x3d, 0x68, 0x54, 0x33, 0x3e, 0xe6, 0x99, 0x24, 0x3e,
  0x7b, 0x0c, 0xa7, 0xbd, 0xca, 0x9e, 0xb4, 0xbd, 0x3c, 0xbd, 0xeb, 0x3d,
  0x12, 0x5c, 0x53, 0x3e, 0x81, 0x73, 0x49, 0x3c, 0x05, 0xe5, 0x65, 0xbd,
  0x9b, 0x3f, 0xc5, 0xbd, 0xe2, 0x7d, 0x3c, 0xbe, 0x57, 0x67, 0x42, 0x3e,
  0x9b, 0x6b, 0x84, 0xbe, 0x10, 0x3f, 0xc6, 0x3d, 0x27, 0x7a, 0x39, 0xbe,
  0xe2, 0x9b, 0xc2, 0x3d, 0xf0, 0xe8, 0x87, 0x3e, 0x9a, 0x41, 0x27, 0x3e,
  0x3a, 0xac, 0x20, 0x3e, 0xbe, 0x11, 0x46, 0x3d, 0x50, 0xa2, 0x8e, 0x3e,
  0xbd, 0xed, 0x5c, 0x3e, 0x57, 0x98, 0x39, 0xbe, 0xce, 0x43, 0xe2, 0x3d,
  0x16, 0x02, 0x5d, 0x3e, 0xa4, 0xc9, 0x83, 0xbe, 0x20, 0x06, 0x96, 0xb7,
  0xd6, 0x2d, 0x98, 0xbd, 0xa5, 0x80, 0x9c, 0xbe, 0xb4, 0x3a, 0x11, 0xbe,
  0x52, 0x91, 0xed, 0xbd, 0x5c, 0x43, 0x90, 0xbe, 0xc2, 0x03, 0x88, 0x3e,
  0x49, 0xe5, 0x8a, 0xbe, 0x2e, 0xc5, 0x54, 0x3e, 0xd3, 0x25, 0x0f, 0x3d,
  0x67, 0x2a, 0x5b, 0x3e, 0xa6, 0x1f, 0xa3, 0x3d, 0x32, 0x11, 0x7b, 0x3d,
  0xc7, 0x8f, 0x03, 0xbe, 0x4d, 0x10, 0x1f, 0x3d, 0xf8, 0xcb, 0x34, 0xbd,
  0xd5, 0x24, 0x77, 0x3d, 0xb0, 0x39, 0x25, 0xbe, 0x64, 0xe2, 0x97, 0xbe,
  0x50, 0x79, 0x87, 0x3e, 0xf8, 0xfd, 0x6e, 0x3d, 0x39, 0xc2, 0xb7, 0x3d,
  0x35, 0xad, 0x19, 0x3e, 0x12, 0x3f, 0x5a, 0x3e, 0xd4, 0x71, 0x32, 0x3e,
  0x82, 0xb4, 0x21, 0x3e, 0x3e, 0xc2, 0xb9, 0x3b, 0x57, 0x49, 0xe7, 0x3d,
  0xbb, 0xbe, 0x80, 0x3e, 0x16, 0xce, 0xf3, 0xbd, 0x80, 0xf1, 0x4b, 0x3e,
  0xa8, 0x15, 0x56, 0x3e, 0xb6, 0x5c, 0x7f, 0x3e, 0xfa, 0xca, 0x75, 0xbe,
  0xa8, 0xc7, 0x6b, 0xbe, 0x26, 0x1c, 0x46, 0x3e, 0x68, 0xe3, 0x8d, 0xbd,
  0x3c, 0xb5, 0x5d, 0xbe, 0xb9, 0x8e, 0x36, 0x3e, 0xae, 0xa6, 0x7a, 0x3c,
  0xc0, 0xb3, 0xfd, 0xbd, 0x35, 0x89, 0x84, 0xbe, 0x23, 0x5a, 0x14, 0x3e,
  0xa2, 0x01, 0xaa, 0x3c, 0xf0, 0x6d, 0x38, 0xbe, 0x0e, 0x60, 0xb5, 0x3d,
  0x92, 0xcd, 0x30, 0x3e, 0xe9, 0x29, 0x0d, 0xbe, 0xe4, 0x9c, 0xbf, 0xbd,
  0xdb, 0x5d, 0xce, 0x3d, 0xbc, 0x6b, 0xa2, 0x3d, 0xd1, 0x41, 0x39, 0x3e,
  0x23, 0x12, 0x28, 0xbe, 0x87, 0x30, 0x5f, 0x3e, 0xe9, 0x7d, 0x03, 0x3d,
  0xef, 0x98, 0xc8, 0x3c, 0x3d, 0xa5, 0x35, 0xbe, 0x70, 0xde, 0x1a, 0x3d,
  0x4a, 0x0c, 0x25, 0x3d, 0x7a, 0x25, 0x90, 0xbe, 0xd1, 0x14, 0x1c, 0x3e,
  0x2c, 0xd2, 0x31, 0x3e, 0x6f, 0x8a, 0x51, 0x3e, 0x57, 0xfd, 0x7b, 0xbe,
  0x5a, 0x9e, 0xb6, 0x3e, 0xe2, 0xf4, 0x41, 0x3e, 0x06, 0x6f, 0x69, 0xbe,
  0x5e, 0x14, 0x6f, 0xbd, 0x12, 0xb7, 0x79, 0x3e, 0xd7, 0xf9, 0x7e, 0xbe,
  0x2a, 0xf4, 0xe5, 0x3d, 0xb8, 0x36, 0x07, 0x3e, 0xb6, 0xba, 0x41, 0x3e,
  0x48, 0x70, 0x76, 0xbe, 0x0c, 0x78, 0xff, 0x3d, 0xe6, 0xeb, 0x81, 0xbe,
  0x5d, 0xe0, 0x8f, 0xbd, 0x93, 0x8f, 0xa4, 0xbc, 0x23, 0x92, 0x78, 0x3e,
  0x1a, 0xc7, 0x4b, 0xbd, 0xf9, 0x3f, 0x92, 0x3e, 0x18, 0xed, 0x45, 0x3e,
  0x0e, 0x4c, 0xe6, 0x3d, 0xb0, 0x16, 0x1c, 0xbd, 0xed, 0xbe, 0xbd, 0xbd,
  0xe6, 0x77, 0x18, 0xbe, 0xca, 0xdd, 0x9b, 0x3e, 0x02, 0x89, 0x30, 0x3e,
  0xf0, 0xb3, 0x92, 0xbc, 0x13, 0x72, 0x88, 0xbe, 0x19, 0x42, 0x60, 0x3e,
  0xa0, 0xd3, 0x03, 0xbe, 0x8b, 0xc1, 0x4b, 0x3e, 0xe3, 0xa5, 0x5b, 0x3d,
  0x5a, 0x5b, 0x1f, 0xbe, 0xc9, 0x7f, 0x19, 0xbe, 0xad, 0xbd, 0xc4, 0x3e,
  0x32, 0x03, 0x1b, 0xbd, 0xe7, 0xad, 0x30, 0x3d, 0x73, 0xf3, 0x01, 0x3e,
  0x80, 0x54, 0x92, 0xbe, 0x4a, 0x28, 0x02, 0x3d, 0xcd, 0x50, 0x26, 0x3d,
  0xe6, 0xc1, 0xb5, 0x3d, 0x24, 0x3f, 0x35, 0xbe, 0x27, 0x81, 0xd5, 0xbe,
  0x5f, 0x58, 0x3d, 0xbd, 0xef, 0xb9, 0x34, 0x3e, 0x65, 0xf2, 0xae, 0x3d,
  0x64, 0xe9, 0x19, 0xbe, 0xed, 0x9d, 0xd2, 0x3d, 0xcb, 0xe1, 0x6c, 0xbe,
  0x3a, 0xa1, 0x7a, 0xbd, 0x88, 0x58, 0x01, 0xbd, 0x3a, 0xef, 0x8b, 0x3c,
  0x0e, 0x88, 0x9f, 0x3d, 0x27, 0x4b, 0x02, 0x3e, 0xac, 0xba, 0x37, 0x3e,
  0x01, 0xd4, 0x0b, 0xbe, 0x11, 0x43, 0x20, 0x3d, 0x50, 0x65, 0x04, 0x3e,
  0xc7, 0xd6, 0x99, 0x3d, 0x8b, 0xae, 0xa8, 0xbd, 0x49, 0x88, 0x17, 0x3e,
  0x73, 0xf5, 0xee, 0xbd, 0x34, 0x04, 0x9b, 0xbe, 0x18, 0x78, 0x80, 0x3e,
  0x7c, 0x70, 0x37, 0xbe, 0x39, 0xb7, 0x77, 0xbe, 0x50, 0x1e, 0x84, 0x3e,
  0x58, 0xbc, 0x92, 0xbe, 0x8d, 0xb5, 0x5b, 0xbe, 0x12, 0x28, 0xd0, 0x3d,
  0x6c, 0x0d, 0xbe, 0x3d, 0x2c, 0x05, 0x39, 0x3e, 0xb9, 0x38, 0x39, 0x3e,
  0xba, 0xec, 0xed, 0xbd, 0x1d, 0x7f, 0x97, 0x3d, 0x75, 0x66, 0x0a, 0xbd,
  0x8e, 0xfa, 0x90, 0x3e, 0xba, 0x63, 0x5d, 0x3e, 0x85, 0x40, 0xa5, 0xbe,
  0x1e, 0x1c, 0x22, 0xbd, 0xd0, 0x4c, 0x15, 0x3e, 0x6d, 0x65, 0x9c, 0x3e,
  0x58, 0x3b, 0xb8, 0xbd, 0xe8, 0x9b, 0x99, 0xbd, 0x1a, 0x61, 0x45, 0x3e,
  0x3a, 0x74, 0xbe, 0xbe, 0xba, 0x06, 0x88, 0xbe, 0xf2, 0xc8, 0x0e, 0x3c,
  0xa2, 0x60, 0x82, 0xbe, 0x6a, 0xc6, 0x7c, 0x3e, 0xd8, 0x5d, 0x36, 0x3d,
  0x95, 0xb8, 0x32, 0xbe, 0x12, 0x75, 0x96, 0x3e, 0xca, 0x12, 0x5e, 0x3e,
  0xf8, 0x24, 0x8b, 0xbe, 0xc5, 0x81, 0x5f, 0x3e, 0xe0, 0xdf, 0x7a, 0xbe,
  0x71, 0xd3, 0xeb, 0x3d, 0xdf, 0xee, 0x6b, 0xbe, 0x01, 0x8f, 0x0a, 0x3e,
  0x64, 0xac, 0x6a, 0xbe, 0x68, 0x09, 0x9e, 0xbe, 0x47, 0x3b, 0xb9, 0xbc,
  0x95, 0x09, 0xe5, 0xbd, 0xa1, 0x48, 0x3d, 0x3e, 0xf0, 0x45, 0x2a, 0x3d,
  0x9e, 0x03, 0xf5, 0x3d, 0x80, 0xd4, 0x0b, 0x3c, 0xa5, 0x71, 0x4e, 0x3e,
  0x56, 0x5f, 0x50, 0x3e, 0x28, 0x2d, 0x8b, 0xbe, 0x28, 0x15, 0x0c, 0xbd,
  0x62, 0x88, 0x28, 0xbe, 0x01, 0x2e, 0x0b, 0xbe, 0xb5, 0x79, 0xc7, 0x3d,
  0xd4, 0xc4, 0xa7, 0xbe, 0x34, 0x84, 0x66, 0x3d, 0x28, 0x91, 0xc2, 0xbd,
  0xe2, 0xbe, 0x1f, 0x3e, 0x8c, 0xce, 0x4a, 0xbe, 0x36, 0x64, 0xa3, 0x3d,
  0x19, 0xc7, 0x6a, 0xbe, 0xee, 0x7c, 0xbd, 0xbc, 0x2d, 0xd0, 0xa4, 0x3c,
  0xeb, 0xff, 0x82, 0x3e, 0x5d, 0x38, 0xb8, 0x3c, 0xcc, 0x65, 0xda, 0xbd,
  0x67, 0x75, 0x17, 0x3e, 0x80, 0xd8, 0x91, 0xbe, 0xd1, 0xeb, 0xf0, 0xbd,
  0x7f, 0x3b, 0x74, 0x3e, 0xde, 0x08, 0x39, 0xbc, 0x99, 0xb8, 0x85, 0x3e,
  0xe1, 0xcb, 0x94, 0xbe, 0xf1, 0x3b, 0x7b, 0xbe, 0xaa, 0xbe, 0xd4, 0x3b,
  0x8b, 0xe3, 0xe9, 0x3d, 0x00, 0xb2, 0xc3, 0xbb, 0x31, 0xbd, 0x07, 0xbe,
  0x19, 0xc2, 0x3b, 0x3d, 0x32, 0xf9, 0x57, 0x3e, 0x96, 0x26, 0x93, 0xbd,
  0x91, 0x77, 0x15, 0xbe, 0xe2, 0x61, 0x16, 0x3e, 0xc2, 0x17, 0x37, 0xbe,
  0x95, 0x40, 0x9e, 0x3b, 0xc2, 0x58, 0xbf, 0x3d, 0x3a, 0xc3, 0x55, 0xbd,
  0xa3, 0xe4, 0x12, 0xbe, 0x68, 0x30, 0x6e, 0xbe, 0xd0, 0x4e, 0x42, 0xbd,
  0x00, 0x74, 0xb4, 0xbc, 0x5c, 0xc7, 0x35, 0xbe, 0x96, 0x74, 0x03, 0x3e,
  0x02, 0x3c, 0x2d, 0xbe, 0xa1, 0x64, 0xdc, 0xbc, 0x1e, 0x93, 0x3e, 0xbe,
  0x12, 0x19, 0x73, 0x3e, 0x81, 0x4d, 0xa5, 0xbd, 0xcb, 0xfb, 0x9a, 0x3e,
  0x99, 0x31, 0x13, 0x3e, 0x01, 0xa7, 0xaa, 0x3e, 0xc8, 0xa4, 0x5d, 0xbe,
  0x6a, 0x9f, 0xd5, 0xbd, 0xa1, 0x96, 0x1d, 0x3e, 0x4d, 0x01, 0x6c, 0xbe,
  0x44, 0xb6, 0x3e, 0x3e, 0x7e, 0x60, 0x3e, 0x3e, 0x6e, 0x45, 0x8b, 0xbe,
  0xe4, 0x7d, 0xef, 0x3d, 0x51, 0x14, 0x9a, 0x3d, 0x7b, 0xd4, 0xf1, 0xbd,
  0x1c, 0x1c, 0x34, 0x3e, 0x17, 0xfa, 0x4c, 0xbe, 0x21, 0xc5, 0xa9, 0x3d,
  0x53, 0xa7, 0x29, 0x3e, 0xc2, 0x5a, 0xa5, 0xbe, 0x4b, 0x36, 0x81, 0x3e,
  0x51, 0xc1, 0x45, 0x3e, 0x75, 0x3e, 0xa5, 0xbe, 0x8e, 0x09, 0x87, 0xbe,
  0x8a, 0x2e, 0x69, 0x3d, 0xa5, 0x8f, 0xc7, 0xbd, 0x42, 0x7a, 0x9d, 0x3d,
  0xe0, 0x76, 0x75, 0x3e, 0xc9, 0x62, 0x16, 0xbe, 0x66, 0x67, 0x1e, 0x3e,
  0xd2, 0xc0, 0x5c, 0xbe, 0x5a, 0x64, 0x76, 0x3e, 0xe2, 0x68, 0x78, 0x3d,
  0x36, 0x95, 0x86, 0xbe, 0x0d, 0x2f, 0xa1, 0x3c, 0xc9, 0x7f, 0xd2, 0x3d,
  0x89, 0xe3, 0x76, 0x3e, 0x43, 0xe3, 0x56, 0x3e, 0xd8, 0x0a, 0x78, 0xbe,
  0xc7, 0x43, 0x2f, 0xbe, 0x09, 0xe8, 0x16, 0xbe, 0x72, 0x26, 0x0a, 0xbe,
  0x4e, 0x1e, 0x39, 0x3e, 0xd7, 0x7d, 0x47, 0x3e, 0xa0, 0x9f, 0xae, 0xbd,
  0xe4, 0x67, 0x5e, 0x3d, 0xbc, 0x9d, 0xe0, 0xbd, 0x84, 0xb2, 0x32, 0xbd,
  0x00, 0x2d, 0xe9, 0x3d, 0xd6, 0x5a, 0x0c, 0xbe, 0xfa, 0x5c, 0xcd, 0xbd,
  0x43, 0x59, 0x0a, 0xbe, 0x3e, 0xba, 0xd3, 0x3e, 0xa5, 0xb5, 0x5a, 0x3e,
  0xa7, 0x61, 0x9f, 0xbe, 0x99, 0xce, 0x89, 0x3e, 0xaf, 0x95, 0x76, 0x3d,
  0x1c, 0xac, 0x83, 0x3c, 0x80, 0x7d, 0x5f, 0x3e, 0xfb, 0x55, 0x52, 0x3e,
  0x4a, 0x1c, 0x63, 0xbe, 0xc9, 0x74, 0x85, 0xbe, 0x6c, 0x07, 0x0c, 0xbe,
  0x82, 0x2f, 0x42, 0x3e, 0x9a, 0xf5, 0xca, 0xbb, 0x99, 0xc3, 0xa3, 0x3d,
  0xdd, 0xd1, 0x00, 0x3d, 0xf4, 0x03, 0x81, 0xbe, 0x43, 0xcc, 0x5b, 0x3e,
  0x9e, 0x72, 0x14, 0xbd, 0x43, 0x6c, 0xc3, 0xbd, 0x14, 0xeb, 0xbb, 0xbd,
  0xc9, 0x0e, 0x4c, 0xbe, 0xf8, 0xc6, 0x89, 0x3e, 0xf4, 0xd3, 0xdf, 0x39,
  0x66, 0x76, 0x68, 0x3e, 0x1a, 0x69, 0x03, 0x3e, 0x07, 0xbb, 0xae, 0xbe,
  0xdc, 0x92, 0xc0, 0x3c, 0x1c, 0x98, 0x23, 0xbd, 0x11, 0x19, 0x07, 0xbd,
  0xe4, 0x99, 0x81, 0x3c, 0x86, 0x80, 0x3a, 0x3e, 0xa8, 0x03, 0xb0, 0xbe,
  0xac, 0x20, 0x04, 0x3e, 0x6b, 0x5d, 0x18, 0x3d, 0x2d, 0xa7, 0x6f, 0xbe,
  0x22, 0x4c, 0x14, 0xbe, 0x1e, 0xfe, 0x70, 0x3d, 0x98, 0xdd, 0x40, 0x3e,
  0xe2, 0xd0, 0x3f, 0x3d, 0x7f, 0xf2, 0x9d, 0xbd, 0x80, 0x1f, 0xf5, 0xbd,
  0xf6, 0xd2, 0xf7, 0x3d, 0x6f, 0x05, 0x84, 0x3e, 0x44, 0xce, 0xb2, 0x3d,
  0x9b, 0x73, 0xc7, 0xbc, 0x71, 0x5c, 0xfe, 0xbd, 0xc2, 0x1d, 0xc9, 0x3d,
  0x75, 0x1e, 0x0b, 0xbe, 0x06, 0x77, 0x57, 0x3c, 0x0e, 0x04, 0x2a, 0xbe,
  0x08, 0x79, 0x80, 0xbe, 0xf0, 0xa0, 0xf3, 0x3b, 0xf4, 0x2c, 0x45, 0xbe,
  0x09, 0x62, 0xac, 0x3e, 0xa4, 0x7c, 0x4c, 0x3e, 0x69, 0x87, 0x7f, 0xbe,
  0x3c, 0xc5, 0xc7, 0x3d, 0x84, 0xb0, 0xfe, 0xbd, 0xfe, 0x36, 0x35, 0xbe,
  0xd8, 0xd5, 0x08, 0x3e, 0x0d, 0x7f, 0x62, 0x3d, 0xe3, 0x80, 0x7f, 0xbe,
  0xb8, 0xb0, 0xb3, 0x3d, 0xb6, 0x65, 0x89, 0x3c, 0x7f, 0x17, 0xe7, 0x3e,
  0x08, 0x1d, 0xce, 0xbc, 0xe1, 0x0e, 0x1f, 0xbc, 0xe6, 0x68, 0x19, 0x3e,
  0xa9, 0x41, 0x3b, 0xbe, 0x9d, 0x8c, 0x79, 0xbd, 0xca, 0x8d, 0x33, 0x3e,
  0xdf, 0xb8, 0x76, 0x3e, 0x26, 0x45, 0x66, 0x3e, 0x4d, 0x4a, 0xaf, 0xbe,
  0xc6, 0x84, 0x61, 0x3e, 0x04, 0x5e, 0x9e, 0xbb, 0xbd, 0xc3, 0x5f, 0xbe,
  0xe8, 0x63, 0x4f, 0x3d, 0x6e, 0xb5, 0x93, 0xbc, 0xad, 0x73, 0x8b, 0xbe,
  0x03, 0x9b, 0x4e, 0x3e, 0xbe, 0x00, 0x5b, 0x3e, 0x47, 0x30, 0x48, 0xbe,
  0x34, 0x40, 0x1c, 0x3e, 0x90, 0x7f, 0x17, 0x3e, 0x78, 0x7d, 0xe5, 0x3d,
  0xb3, 0xa1, 0x89, 0xbd, 0x64, 0xe7, 0xe8, 0x3d, 0x1a, 0x6c, 0x77, 0x3e,
  0x88, 0x2b, 0x18, 0x3d, 0x7f, 0xd5, 0x59, 0xbd, 0x26, 0x83, 0x81, 0x3d,
  0x1d, 0x39, 0xc7, 0x3d, 0xd0, 0xc8, 0xb8, 0xbd, 0x26, 0xee, 0x73, 0x3d,
  0xcb, 0x40, 0x2c, 0xbe, 0xf8, 0x37, 0x47, 0x3e, 0x72, 0x1b, 0x26, 0x3e,
  0xb1, 0x5c, 0x7e, 0xbd, 0xf9, 0xef, 0x2d, 0x3e, 0xb5, 0x6e, 0x0b, 0xbe,
  0x0d, 0x97, 0x9b, 0xbc, 0x8a, 0xeb, 0xc7, 0x3d, 0x47, 0xd5, 0xdf, 0x3d,
  0xc4, 0xbf, 0xfd, 0xbd, 0xa1, 0xd3, 0x4b, 0xbe, 0x50, 0xac, 0xb1, 0x3d,
  0xcf, 0x56, 0x28, 0x3e, 0x8e, 0xd9, 0x68, 0xbe, 0x16, 0x8b, 0x65, 0xbe,
  0xae, 0x92, 0x89, 0x3e, 0x4d, 0x30, 0xf2, 0xbd, 0xc7, 0x1a, 0x36, 0x3e,
  0x97, 0x7c, 0x0f, 0xbd, 0xda, 0x62, 0x17, 0xbe, 0x22, 0xb7, 0x1e, 0xbe,
  0xdb, 0x5e, 0x6b, 0x3e, 0xc6, 0x12, 0x17, 0x3c, 0x7f, 0xf8, 0xce, 0xbd,
  0x98, 0x90, 0x24, 0xbe, 0xe0, 0x16, 0xbc, 0x3d, 0x08, 0xfd, 0x2e, 0xbd,
  0x31, 0x83, 0xa9, 0xbd, 0x6a, 0xf2, 0x81, 0xbb, 0xf2, 0x89, 0x64, 0x3d,
  0x67, 0x4f, 0xc3, 0xbc, 0xc1, 0x55, 0x12, 0x3e, 0x45, 0x6c, 0xb5, 0xbe,
  0xea, 0xa9, 0x25, 0x3e, 0xf9, 0xaa, 0x20, 0x3e, 0x27, 0x06, 0x5c, 0xbe,
  0x42, 0x9a, 0xa8, 0x3d, 0xa1, 0x8e, 0xff, 0x3d, 0xff, 0x77, 0x02, 0x3e,
  0x5c, 0x71, 0x95, 0xbb, 0x5e, 0xab, 0x7a, 0xbe, 0xb2, 0x84, 0x39, 0x3e,
  0xb9, 0x23, 0x8f, 0xbc, 0x88, 0x2d, 0x54, 0x3e, 0x51, 0xfb, 0x64, 0xbe,
  0xca, 0x97, 0x70, 0xbd, 0x88, 0xae, 0xac, 0xbe, 0xba, 0x5b, 0xf0, 0x3d,
  0xa4, 0xcc, 0x51, 0xbe, 0xd9, 0x94, 0x74, 0x3e, 0x4d, 0x43, 0x00, 0x3e,
  0x2f, 0x62, 0x02, 0x3d, 0xb4, 0xd0, 0x49, 0x3e, 0x26, 0x4b, 0xd9, 0x3d,
  0xa5, 0x35, 0x69, 0x3e, 0xb6, 0xe1, 0xbf, 0xbd, 0xfb, 0x40, 0x7d, 0x3e,
  0xcd, 0xc4, 0x8a, 0x3e, 0x46, 0xae, 0x27, 0xbe, 0x29, 0xf6, 0xc0, 0x3e,
  0xe7, 0x08, 0xec, 0xbb, 0x0e, 0x27, 0xc2, 0x3d, 0x6d, 0x8e, 0x24, 0xbe,
  0x92, 0xbe, 0x5b, 0x3d, 0x14, 0xbc, 0x1d, 0xbe, 0xfe, 0x76, 0xa0, 0x3d,
  0xb9, 0x30, 0x04, 0xbe, 0xc5, 0x0b, 0x82, 0xbe, 0x6c, 0x09, 0x05, 0xbe,
  0xb0, 0x51, 0x45, 0x3e, 0x87, 0xe7, 0x3a, 0x3e, 0xb1, 0x1d, 0xc5, 0xbd,
  0xba, 0x68, 0x78, 0xbe, 0xee, 0x41, 0xa8, 0xbd, 0xe4, 0xbc, 0xa3, 0xbd,
  0xe5, 0x46, 0x4c, 0x3c, 0x48, 0x95, 0x40, 0xbe, 0x33, 0x34, 0x91, 0xbc,
  0xc8, 0xa1, 0xe3, 0xbc, 0xd7, 0x1f, 0x42, 0x3e, 0x3f, 0x31, 0xe2, 0x3d,
  0xcf, 0x01, 0x8d, 0x3e, 0x4f, 0xb8, 0x72, 0x3e, 0x0b, 0x6a, 0x37, 0xbe,
  0x46, 0x99, 0x82, 0x3e, 0xb3, 0xa0, 0xa1, 0xbd, 0x4a, 0x47, 0xce, 0x3d,
  0xb2, 0x1a, 0x1a, 0x3c, 0x0b, 0x26, 0x8e, 0xbe, 0x2a, 0x50, 0x63, 0x3e,
  0x4a, 0x00, 0x01, 0xbe, 0x72, 0xf7, 0x21, 0xbd, 0x25, 0xce, 0x4f, 0xbd,
  0x36, 0xe7, 0xa6, 0x3d, 0x1f, 0x60, 0x6f, 0x3e, 0xdf, 0x51, 0x6a, 0x3e,
  0x97, 0xb0, 0x63, 0xbe, 0x5e, 0xfa, 0xdf, 0x3e, 0xdb, 0x40, 0x56, 0xbd,
  0x8a, 0x44, 0xfa, 0xbd, 0xb8, 0xbf, 0x56, 0xbe, 0x7d, 0xb9, 0x07, 0xbe,
  0xd4, 0x6f, 0x5b, 0xbc, 0xeb, 0xb6, 0x55, 0xbe, 0x5b, 0xae, 0x85, 0xbd,
  0xb4, 0x4a, 0x33, 0xbe, 0xc3, 0x6e, 0xb2, 0xbe, 0x26, 0x6e, 0x3a, 0x3e,
  0xa6, 0xa6, 0x19, 0x3e, 0x41, 0xae, 0xdd, 0xbd, 0x52, 0x9f, 0x19, 0xbe,
  0x8c, 0xc9, 0xba, 0x3b, 0x79, 0x9a, 0x29, 0x3e, 0xff, 0xd6, 0x6d, 0xbe,
  0x45, 0xbd, 0x9c, 0x3e, 0xd2, 0x69, 0xd8, 0x3d, 0x84, 0xb0, 0xc4, 0x3d,
  0xb4, 0x7b, 0x9b, 0xbe, 0x07, 0x38, 0x93, 0x3e, 0xb8, 0x7f, 0x68, 0xbe,
  0x7d, 0xba, 0x61, 0x3e, 0x88, 0xb0, 0x5d, 0xbd, 0xb1, 0xb7, 0xf3, 0x3b,
  0x17, 0x46, 0x6e, 0x3e, 0xa8, 0x10, 0x5e, 0x3e, 0xcd, 0xbe, 0x36, 0x3e,
  0x7b, 0x52, 0x58, 0xbe, 0x29, 0x54, 0xab, 0xbd, 0x1d, 0xde, 0x13, 0xbe,
  0x9e, 0x76, 0x0e, 0xbe, 0x01, 0xcf, 0x3e, 0x3d, 0x05, 0xda, 0x9c, 0x3c,
  0x57, 0x2a, 0x58, 0xbe, 0xb1, 0x43, 0x0d, 0xbe, 0x29, 0x80, 0x77, 0x3e,
  0x5d, 0x6c, 0x32, 0xbc, 0x21, 0xaf, 0x8d, 0x3c, 0x94, 0xbf, 0xe8, 0x3d,
  0xb9, 0x73, 0x1e, 0x3d, 0x2d, 0x65, 0xf0, 0xbd, 0xfb, 0x5f, 0x16, 0xbe,
  0xb3, 0x7b, 0x5f, 0x3e, 0xfe, 0x9c, 0xad, 0xbe, 0xb7, 0x60, 0xf4, 0x3d,
  0xa0, 0x2a, 0xa7, 0x3d, 0x5d, 0x42, 0x07, 0x3f, 0x3c, 0xc1, 0xf0, 0x3c,
  0xc0, 0xf9, 0x30, 0xbd, 0x0f, 0x5c, 0x02, 0x3e, 0x9e, 0x88, 0x19, 0x3e,
  0xc8, 0xa6, 0xae, 0x3d, 0xb7, 0x84, 0x10, 0x3e, 0x4d, 0x46, 0x44, 0x3e,
  0x00, 0xe5, 0x31, 0x3e, 0xf7, 0x97, 0x87, 0xbc, 0x1c, 0x41, 0xc0, 0xbc,
  0x3f, 0x81, 0xb5, 0x3e, 0x36, 0xdc, 0xfc, 0x3c, 0x5e, 0x1b, 0x72, 0x3d,
  0xa4, 0xa3, 0x98, 0x3d, 0x02, 0x2b, 0x77, 0xbe, 0xb3, 0x31, 0xb1, 0x3e,
  0xa2, 0xb7, 0x32, 0xbe, 0x9c, 0x26, 0x8a, 0xbd, 0x0e, 0x90, 0x8d, 0xbe,
  0x39, 0x27, 0x56, 0xbe, 0x31, 0xe9, 0x10, 0xbd, 0xba, 0xd9, 0xaf, 0xbd,
  0x15, 0x04, 0x69, 0x3e, 0xb0, 0x38, 0xd6, 0x3c, 0xfd, 0xfe, 0x9b, 0xbd,
  0x2a, 0xd5, 0x9f, 0x3e, 0x10, 0xbf, 0x8b, 0x3e, 0x0e, 0xd8, 0x5f, 0x3e,
  0xa4, 0x4d, 0xc8, 0xbe, 0x1e, 0xdf, 0x1f, 0xbe, 0x78, 0xae, 0xd0, 0x3d,
  0x84, 0x47, 0xf2, 0xbc, 0xf4, 0x23, 0x29, 0xbe, 0x9e, 0x85, 0xf6, 0x3d,
  0xb8, 0x49, 0x0a, 0x3e, 0x64, 0x2d, 0x3c, 0xbe, 0x14, 0x30, 0xa2, 0x3e,
  0xbc, 0x6d, 0xca, 0xbd, 0xe5, 0xb9, 0x54, 0x3e, 0x00, 0x7e, 0x6a, 0xbb,
  0x50, 0x8b, 0x0b, 0xbe, 0x12, 0x80, 0x27, 0x3e, 0x19, 0x00, 0x05, 0xbe,
  0x80, 0x2b, 0xbf, 0x3d, 0xe0, 0xef, 0x4f, 0xbd, 0x31, 0xb5, 0xe0, 0x3c,
  0xfc, 0xce, 0xa4, 0xbd, 0x2f, 0x23, 0x70, 0x3e, 0x08, 0x0d, 0x06, 0x3e,
  0x49, 0x0c, 0xc9, 0x3d, 0xd5, 0x9f, 0x16, 0x3e, 0xf6, 0xca, 0x02, 0xbd,
  0x0f, 0x17, 0x89, 0x3e, 0x7d, 0x26, 0x56, 0xbe, 0xca, 0x9b, 0x35, 0x3e,
  0xac, 0xfb, 0x0d, 0xbe, 0xf4, 0x0c, 0xca, 0xbd, 0xf9, 0x87, 0x6c, 0x3e,
  0x50, 0x6e, 0x9f, 0x3d, 0xa8, 0x21, 0x8e, 0xbd, 0x0a, 0x6f, 0x70, 0x3c,
  0x64, 0xce, 0x4f, 0x3e, 0x99, 0x26, 0x0e, 0xbe, 0x80, 0x42, 0xe2, 0x3c,
  0x76, 0xf3, 0xd1, 0x3d, 0xed, 0x97, 0x53, 0x3e, 0xe2, 0x23, 0x5a, 0x3e,
  0x22, 0xfa, 0xf2, 0xbd, 0x91, 0x49, 0xe1, 0x3d, 0xcb, 0x1e, 0xc0, 0xbd,
  0xd2, 0xf5, 0x08, 0xbd, 0xac, 0xb3, 0x9a, 0x3d, 0x6a, 0x05, 0x5c, 0xbb,
  0x02, 0x0d, 0xad, 0x3e, 0x4e, 0x65, 0x81, 0x3d, 0x52, 0x2a, 0x5e, 0xbe,
  0x27, 0x7f, 0x91, 0xbd, 0x80, 0x0f, 0x49, 0x3e, 0xd9, 0x59, 0xb9, 0xbb,
  0x7a, 0x81, 0x09, 0x3e, 0xd0, 0x54, 0x06, 0x3e, 0x0d, 0x50, 0x30, 0xbd,
  0xb8, 0xc8, 0xc2, 0x3d, 0xef, 0xdf, 0x50, 0x3e, 0x40, 0x09, 0x1f, 0xbd,
  0xe8, 0x22, 0xbe, 0x3c, 0xfc, 0xd7, 0x34, 0xbe, 0x98, 0x19, 0x65, 0x3d,
  0xe2, 0x52, 0xe8, 0xbd, 0xb5, 0x2f, 0x2b, 0xbe, 0x8b, 0xe8, 0x50, 0x3e,
  0x28, 0x37, 0x78, 0x3d, 0x1d, 0xa4, 0xdc, 0x3d, 0xf1, 0xa2, 0x84, 0xbd,
  0x53, 0xa3, 0x20, 0x3d, 0xaa, 0xc9, 0xad, 0x3e, 0x0a, 0xe7, 0x84, 0x3e,
  0x8d, 0xe0, 0x85, 0x3d, 0x41, 0xe1, 0x13, 0x3e, 0xbf, 0xae, 0x8e, 0x3c,
  0x9d, 0x4d, 0x85, 0x3c, 0x6d, 0x00, 0xe9, 0xbd, 0xe9, 0xf6, 0x12, 0x3e,
  0x18, 0xc9, 0x01, 0xbd, 0x2b, 0x2f, 0xb3, 0xbc, 0x49, 0x1e, 0x23, 0x3e,
  0x47, 0xb5, 0x9f, 0x3e, 0x59, 0xbe, 0xca, 0x3d, 0xaa, 0xef, 0x8d, 0x3e,
  0x86, 0xde, 0x67, 0x3d, 0x43, 0x2d, 0xbe, 0x3c, 0x44, 0xb5, 0xc3, 0x3d,
  0xd0, 0x8d, 0xd3, 0xbd, 0xc2, 0xf6, 0xec, 0xbc, 0xcc, 0x5d, 0xf4, 0x3c,
  0x20, 0x85, 0xc8, 0xbc, 0x2a, 0x30, 0x82, 0x3d, 0x92, 0xad, 0x96, 0xbd,
  0xaf, 0xf4, 0xa1, 0xbc, 0x32, 0xb5, 0x2b, 0xbe, 0x24, 0x41, 0x0e, 0x3e,
  0xf6, 0xb4, 0x20, 0xbe, 0xe4, 0x8d, 0x83, 0x3e, 0x9c, 0x57, 0x1c, 0x3e,
  0xf2, 0x68, 0x8f, 0xbd, 0x4b, 0x0a, 0xf8, 0xbd, 0xbc, 0xe1, 0xc8, 0x3d,
  0x1a, 0x3c, 0x26, 0x3e, 0x6e, 0x81, 0x64, 0x3e, 0xbc, 0x14, 0x04, 0x3e,
  0xce, 0x18, 0x42, 0xbd, 0x6c, 0xfc, 0x87, 0x3e, 0x65, 0xea, 0x05, 0x3e,
  0xb4, 0xf9, 0xff, 0xff, 0xb8, 0xf9, 0xff, 0xff, 0x0f, 0x00, 0x00, 0x00,
  0x4d, 0x4c, 0x49, 0x52, 0x20, 0x43, 0x6f, 0x6e, 0x76, 0x65, 0x72, 0x74,
  0x65, 0x64, 0x2e, 0x00, 0x01, 0x00, 0x00, 0x00, 0x14, 0x00, 0x00, 0x00,
  0x00, 0x00, 0x0e, 0x00, 0x18, 0x00, 0x14, 0x00, 0x10, 0x00, 0x0c, 0x00,
  0x08, 0x00, 0x04, 0x00, 0x0e, 0x00, 0x00, 0x00, 0x14, 0x00, 0x00, 0x00,
  0x1c, 0x00, 0x00, 0x00, 0x20, 0x01, 0x00, 0x00, 0x24, 0x01, 0x00, 0x00,
  0x28, 0x01, 0x00, 0x00, 0x04, 0x00, 0x00, 0x00, 0x6d, 0x61, 0x69, 0x6e,
  0x00, 0x00, 0x00, 0x00, 0x04, 0x00, 0x00, 0x00, 0xc8, 0x00, 0x00, 0x00,
  0x80, 0x00, 0x00, 0x00, 0x38, 0x00, 0x00, 0x00, 0x04, 0x00, 0x00, 0x00,
  0x9a, 0xff, 0xff, 0xff, 0x10, 0x00, 0x00, 0x00, 0x00, 0x00, 0x00, 0x08,
  0x0c, 0x00, 0x00, 0x00, 0x10, 0x00, 0x00, 0x00, 0x34, 0xfa, 0xff, 0xff,
  0x01, 0x00, 0x00, 0x00, 0x0c, 0x00, 0x00, 0x00, 0x03, 0x00, 0x00, 0x00,
  0x0b, 0x00, 0x00, 0x00, 0x01, 0x00, 0x00, 0x00, 0x04, 0x00, 0x00, 0x00,
  0xca, 0xff, 0xff, 0xff, 0x10, 0x00, 0x00, 0x00, 0x00, 0x00, 0x00, 0x08,
  0x10, 0x00, 0x00, 0x00, 0x14, 0x00, 0x00, 0x00, 0x76, 0xff, 0xff, 0xff,
  0x00, 0x00, 0x00, 0x01, 0x01, 0x00, 0x00, 0x00, 0x0b, 0x00, 0x00, 0x00,
  0x03, 0x00, 0x00, 0x00, 0x0a, 0x00, 0x00, 0x00, 0x02, 0x00, 0x00, 0x00,
  0x06, 0x00, 0x00, 0x00, 0x00, 0x00, 0x0e, 0x00, 0x14, 0x00, 0x00, 0x00,
  0x10, 0x00, 0x0c, 0x00, 0x0b, 0x00, 0x04, 0x00, 0x0e, 0x00, 0x00, 0x00,
  0x10, 0x00, 0x00, 0x00, 0x00, 0x00, 0x00, 0x08, 0x10, 0x00, 0x00, 0x00,
  0x14, 0x00, 0x00, 0x00, 0xba, 0xff, 0xff, 0xff, 0x00, 0x00, 0x00, 0x01,
  0x01, 0x00, 0x00, 0x00, 0x0a, 0x00, 0x00, 0x00, 0x03, 0x00, 0x00, 0x00,
  0x09, 0x00, 0x00, 0x00, 0x03, 0x00, 0x00, 0x00, 0x05, 0x00, 0x00, 0x00,
  0x00, 0x00, 0x0e, 0x00, 0x16, 0x00, 0x00, 0x00, 0x10, 0x00, 0x0c, 0x00,
  0x0b, 0x00, 0x04, 0x00, 0x0e, 0x00, 0x00, 0x00, 0x18, 0x00, 0x00, 0x00,
  0x00, 0x00, 0x00, 0x08, 0x18, 0x00, 0x00, 0x00, 0x1c, 0x00, 0x00, 0x00,
  0x00, 0x00, 0x06, 0x00, 0x08, 0x00, 0x07, 0x00, 0x06, 0x00, 0x00, 0x00,
  0x00, 0x00, 0x00, 0x01, 0x01, 0x00, 0x00, 0x00, 0x09, 0x00, 0x00, 0x00,
  0x03, 0x00, 0x00, 0x00, 0x00, 0x00, 0x00, 0x00, 0x08, 0x00, 0x00, 0x00,
  0x07, 0x00, 0x00, 0x00, 0x01, 0x00, 0x00, 0x00, 0x0c, 0x00, 0x00, 0x00,
  0x01, 0x00, 0x00, 0x00, 0x00, 0x00, 0x00, 0x00, 0x0d, 0x00, 0x00, 0x00,
  0xb0, 0x04, 0x00, 0x00, 0x58, 0x04, 0x00, 0x00, 0x00, 0x04, 0x00, 0x00,
  0xc0, 0x03, 0x00, 0x00, 0x84, 0x03, 0x00, 0x00, 0x48, 0x03, 0x00, 0x00,
  0xec, 0x02, 0x00, 0x00, 0x90, 0x02, 0x00, 0x00, 0x40, 0x02, 0x00, 0x00,
  0xa0, 0x01, 0x00, 0x00, 0x00, 0x01, 0x00, 0x00, 0x60, 0x00, 0x00, 0x00,
  0x04, 0x00, 0x00, 0x00, 0x9a, 0xfb, 0xff, 0xff, 0x00, 0x00, 0x00, 0x01,
  0x14, 0x00, 0x00, 0x00, 0x1c, 0x00, 0x00, 0x00, 0x1c, 0x00, 0x00, 0x00,
  0x0d, 0x00, 0x00, 0x00, 0x34, 0x00, 0x00, 0x00, 0x02, 0x00, 0x00, 0x00,
  0xff, 0xff, 0xff, 0xff, 0x3c, 0x00, 0x00, 0x00, 0x84, 0xfb, 0xff, 0xff,
  0x1b, 0x00, 0x00, 0x00, 0x53, 0x74, 0x61, 0x74, 0x65, 0x66, 0x75, 0x6c,
  0x50, 0x61, 0x72, 0x74, 0x69, 0x74, 0x69, 0x6f, 0x6e, 0x65, 0x64, 0x43,
  0x61, 0x6c, 0x6c, 0x5f, 0x31, 0x3a, 0x30, 0x00, 0x02, 0x00, 0x00, 0x00,
  0x01, 0x00, 0x00, 0x00, 0x3c, 0x00, 0x00, 0x00, 0xf2, 0xfb, 0xff, 0xff,
  0x00, 0x00, 0x00, 0x01, 0x14, 0x00, 0x00, 0x00, 0x1c, 0x00, 0x00, 0x00,
  0x1c, 0x00, 0x00, 0x00, 0x0c, 0x00, 0x00, 0x00, 0x78, 0x00, 0x00, 0x00,
  0x02, 0x00, 0x00, 0x00, 0xff, 0xff, 0xff, 0xff, 0x10, 0x00, 0x00, 0x00,
  0xdc, 0xfb, 0xff, 0xff, 0x5e, 0x00, 0x00, 0x00, 0x73, 0x65, 0x71, 0x75,
  0x65, 0x6e, 0x74, 0x69, 0x61, 0x6c, 0x5f, 0x31, 0x2f, 0x64, 0x65, 0x63,
  0x6f, 0x64, 0x65, 0x72, 0x5f, 0x31, 0x5f, 0x31, 0x2f, 0x4d, 0x61, 0x74,
  0x4d, 0x75, 0x6c, 0x3b, 0x73, 0x65, 0x71, 0x75, 0x65, 0x6e, 0x74, 0x69,
  0x61, 0x6c, 0x5f, 0x31, 0x2f, 0x64, 0x65, 0x63, 0x6f, 0x64, 0x65, 0x72,
  0x5f, 0x31, 0x5f, 0x31, 0x2f, 0x52, 0x65, 0x6c, 0x75, 0x3b, 0x73, 0x65,
  0x71, 0x75, 0x65, 0x6e, 0x74, 0x69, 0x61, 0x6c, 0x5f, 0x31, 0x2f, 0x64,
  0x65, 0x63, 0x6f, 0x64, 0x65, 0x72, 0x5f, 0x31, 0x5f, 0x31, 0x2f, 0x42,
  0x69, 0x61, 0x73, 0x41, 0x64, 0x64, 0x00, 0x00, 0x02, 0x00, 0x00, 0x00,
  0x01, 0x00, 0x00, 0x00, 0x10, 0x00, 0x00, 0x00, 0x8e, 0xfc, 0xff, 0xff,
  0x00, 0x00, 0x00, 0x01, 0x14, 0x00, 0x00, 0x00, 0x1c, 0x00, 0x00, 0x00,
  0x1c, 0x00, 0x00, 0x00, 0x0b, 0x00, 0x00, 0x00, 0x78, 0x00, 0x00, 0x00,
  0x02, 0x00, 0x00, 0x00, 0xff, 0xff, 0xff, 0xff, 0x08, 0x00, 0x00, 0x00,
  0x78, 0xfc, 0xff, 0xff, 0x5e, 0x00, 0x00, 0x00, 0x73, 0x65, 0x71, 0x75,
  0x65, 0x6e, 0x74, 0x69, 0x61, 0x6c, 0x5f, 0x31, 0x2f, 0x65, 0x6e, 0x63,
  0x6f, 0x64, 0x65, 0x72, 0x5f, 0x32, 0x5f, 0x31, 0x2f, 0x4d, 0x61, 0x74,
  0x4d, 0x75, 0x6c, 0x3b, 0x73, 0x65, 0x71, 0x75, 0x65, 0x6e, 0x74, 0x69,
  0x61, 0x6c, 0x5f, 0x31, 0x2f, 0x65, 0x6e, 0x63, 0x6f, 0x64, 0x65, 0x72,
  0x5f, 0x32, 0x5f, 0x31, 0x2f, 0x52, 0x65, 0x6c, 0x75, 0x3b, 0x73, 0x65,
  0x71, 0x75, 0x65, 0x6e, 0x74, 0x69, 0x61, 0x6c, 0x5f, 0x31, 0x2f, 0x65,
  0x6e, 0x63, 0x6f, 0x64, 0x65, 0x72, 0x5f, 0x32, 0x5f, 0x31, 0x2f, 0x42,
  0x69, 0x61, 0x73, 0x41, 0x64, 0x64, 0x00, 0x00, 0x02, 0x00, 0x00, 0x00,
  0x01, 0x00, 0x00, 0x00, 0x08, 0x00, 0x00, 0x00, 0x2a, 0xfd, 0xff, 0xff,
  0x00, 0x00, 0x00, 0x01, 0x14, 0x00, 0x00, 0x00, 0x1c, 0x00, 0x00, 0x00,
  0x1c, 0x00, 0x00, 0x00, 0x0a, 0x00, 0x00, 0x00, 0x78, 0x00, 0x00, 0x00,
  0x02, 0x00, 0x00, 0x00, 0xff, 0xff, 0xff, 0xff, 0x10, 0x00, 0x00, 0x00,
  0x14, 0xfd, 0xff, 0xff, 0x5e, 0x00, 0x00, 0x00, 0x73, 0x65, 0x71, 0x75,
  0x65, 0x6e, 0x74, 0x69, 0x61, 0x6c, 0x5f, 0x31, 0x2f, 0x65, 0x6e, 0x63,
  0x6f, 0x64, 0x65, 0x72, 0x5f, 0x31, 0x5f, 0x31, 0x2f, 0x4d, 0x61, 0x74,
  0x4d, 0x75, 0x6c, 0x3b, 0x73, 0x65, 0x71, 0x75, 0x65, 0x6e, 0x74, 0x69,
  0x61, 0x6c, 0x5f, 0x31, 0x2f, 0x65, 0x6e, 0x63, 0x6f, 0x64, 0x65, 0x72,
  0x5f, 0x31, 0x5f, 0x31, 0x2f, 0x52, 0x65, 0x6c, 0x75, 0x3b, 0x73, 0x65,
  0x71, 0x75, 0x65, 0x6e, 0x74, 0x69, 0x61, 0x6c, 0x5f, 0x31, 0x2f, 0x65,
  0x6e, 0x63, 0x6f, 0x64, 0x65, 0x72, 0x5f, 0x31, 0x5f, 0x31, 0x2f, 0x42,
  0x69, 0x61, 0x73, 0x41, 0x64, 0x64, 0x00, 0x00, 0x02, 0x00, 0x00, 0x00,
  0x01, 0x00, 0x00, 0x00, 0x10, 0x00, 0x00, 0x00, 0x1a, 0xfe, 0xff, 0xff,
  0x00, 0x00, 0x00, 0x01, 0x10, 0x00, 0x00, 0x00, 0x10, 0x00, 0x00, 0x00,
  0x09, 0x00, 0x00, 0x00, 0x2c, 0x00, 0x00, 0x00, 0xa0, 0xfd, 0xff, 0xff,
  0x1f, 0x00, 0x00, 0x00, 0x73, 0x65, 0x71, 0x75, 0x65, 0x6e, 0x74, 0x69,
  0x61, 0x6c, 0x5f, 0x31, 0x2f, 0x65, 0x6e, 0x63, 0x6f, 0x64, 0x65, 0x72,
  0x5f, 0x31, 0x5f, 0x31, 0x2f, 0x4d, 0x61, 0x74, 0x4d, 0x75, 0x6c, 0x00,
  0x02, 0x00, 0x00, 0x00, 0x10, 0x00, 0x00, 0x00, 0x3c, 0x00, 0x00, 0x00,
  0x66, 0xfe, 0xff, 0xff, 0x00, 0x00, 0x00, 0x01, 0x10, 0x00, 0x00, 0x00,
  0x10, 0x00, 0x00, 0x00, 0x08, 0x00, 0x00, 0x00, 0x3c, 0x00, 0x00, 0x00,
  0xec, 0xfd, 0xff, 0xff, 0x2f, 0x00, 0x00, 0x00, 0x73, 0x65, 0x71, 0x75,
  0x65, 0x6e, 0x74, 0x69, 0x61, 0x6c, 0x5f, 0x31, 0x2f, 0x65, 0x6e, 0x63,
  0x6f, 0x64, 0x65, 0x72, 0x5f, 0x31, 0x5f, 0x31, 0x2f, 0x42, 0x69, 0x61,
  0x73, 0x41, 0x64, 0x64, 0x2f, 0x52, 0x65, 0x61, 0x64, 0x56, 0x61, 0x72,
  0x69, 0x61, 0x62, 0x6c, 0x65, 0x4f, 0x70, 0x00, 0x01, 0x00, 0x00, 0x00,
  0x10, 0x00, 0x00, 0x00, 0xbe, 0xfe, 0xff, 0xff, 0x00, 0x00, 0x00, 0x01,
  0x10, 0x00, 0x00, 0x00, 0x10, 0x00, 0x00, 0x00, 0x07, 0x00, 0x00, 0x00,
  0x3c, 0x00, 0x00, 0x00, 0x44, 0xfe, 0xff, 0xff, 0x2f, 0x00, 0x00, 0x00,
  0x73, 0x65, 0x71, 0x75, 0x65, 0x6e, 0x74, 0x69, 0x61, 0x6c, 0x5f, 0x31,
  0x2f, 0x64, 0x65, 0x63, 0x6f, 0x64, 0x65, 0x72, 0x5f, 0x31, 0x5f, 0x31,
  0x2f, 0x42, 0x69, 0x61, 0x73, 0x41, 0x64, 0x64, 0x2f, 0x52, 0x65, 0x61,
  0x64, 0x56, 0x61, 0x72, 0x69, 0x61, 0x62, 0x6c, 0x65, 0x4f, 0x70, 0x00,
  0x01, 0x00, 0x00, 0x00, 0x10, 0x00, 0x00, 0x00, 0x16, 0xff, 0xff, 0xff,
  0x00, 0x00, 0x00, 0x01, 0x10, 0x00, 0x00, 0x00, 0x10, 0x00, 0x00, 0x00,
  0x06, 0x00, 0x00, 0x00, 0x1c, 0x00, 0x00, 0x00, 0x9c, 0xfe, 0xff, 0xff,
  0x0f, 0x00, 0x00, 0x00, 0x61, 0x72, 0x69, 0x74, 0x68, 0x2e, 0x63, 0x6f,
  0x6e, 0x73, 0x74, 0x61, 0x6e, 0x74, 0x34, 0x00, 0x01, 0x00, 0x00, 0x00,
  0x08, 0x00, 0x00, 0x00, 0x4e, 0xff, 0xff, 0xff, 0x00, 0x00, 0x00, 0x01,
  0x10, 0x00, 0x00, 0x00, 0x10, 0x00, 0x00, 0x00, 0x05, 0x00, 0x00, 0x00,
  0x1c, 0x00, 0x00, 0x00, 0xd4, 0xfe, 0xff, 0xff, 0x0f, 0x00, 0x00, 0x00,
  0x61, 0x72, 0x69, 0x74, 0x68, 0x2e, 0x63, 0x6f, 0x6e, 0x73, 0x74, 0x61,
  0x6e, 0x74, 0x33, 0x00, 0x01, 0x00, 0x00, 0x00, 0x3c, 0x00, 0x00, 0x00,
  0x86, 0xff, 0xff, 0xff, 0x00, 0x00, 0x00, 0x01, 0x10, 0x00, 0x00, 0x00,
  0x10, 0x00, 0x00, 0x00, 0x04, 0x00, 0x00, 0x00, 0x1c, 0x00, 0x00, 0x00,
  0x0c, 0xff, 0xff, 0xff, 0x0f, 0x00, 0x00, 0x00, 0x61, 0x72, 0x69, 0x74,
  0x68, 0x2e, 0x63, 0x6f, 0x6e, 0x73, 0x74, 0x61, 0x6e, 0x74, 0x32, 0x00,
  0x02, 0x00, 0x00, 0x00, 0x08, 0x00, 0x00, 0x00, 0x10, 0x00, 0x00, 0x00,
  0xc2, 0xff, 0xff, 0xff, 0x00, 0x00, 0x00, 0x01, 0x10, 0x00, 0x00, 0x00,
  0x10, 0x00, 0x00, 0x00, 0x03, 0x00, 0x00, 0x00, 0x1c, 0x00, 0x00, 0x00,
  0x48, 0xff, 0xff, 0xff, 0x0f, 0x00, 0x00, 0x00, 0x61, 0x72, 0x69, 0x74,
  0x68, 0x2e, 0x63, 0x6f, 0x6e, 0x73, 0x74, 0x61, 0x6e, 0x74, 0x31, 0x00,
  0x02, 0x00, 0x00, 0x00, 0x10, 0x00, 0x00, 0x00, 0x08, 0x00, 0x00, 0x00,
  0x00, 0x00, 0x16, 0x00, 0x18, 0x00, 0x14, 0x00, 0x00, 0x00, 0x10, 0x00,
  0x0c, 0x00, 0x08, 0x00, 0x00, 0x00, 0x00, 0x00, 0x00, 0x00, 0x07, 0x00,
  0x16, 0x00, 0x00, 0x00, 0x00, 0x00, 0x00, 0x01, 0x10, 0x00, 0x00, 0x00,
  0x10, 0x00, 0x00, 0x00, 0x02, 0x00, 0x00, 0x00, 0x1c, 0x00, 0x00, 0x00,
  0x9c, 0xff, 0xff, 0xff, 0x0e, 0x00, 0x00, 0x00, 0x61, 0x72, 0x69, 0x74,
  0x68, 0x2e, 0x63, 0x6f, 0x6e, 0x73, 0x74, 0x61, 0x6e, 0x74, 0x00, 0x00,
  0x02, 0x00, 0x00, 0x00, 0x3c, 0x00, 0x00, 0x00, 0x10, 0x00, 0x00, 0x00,
  0x00, 0x00, 0x16, 0x00, 0x1c, 0x00, 0x18, 0x00, 0x00, 0x00, 0x14, 0x00,
  0x10, 0x00, 0x0c, 0x00, 0x00, 0x00, 0x00, 0x00, 0x08, 0x00, 0x07, 0x00,
  0x16, 0x00, 0x00, 0x00, 0x00, 0x00, 0x00, 0x01, 0x14, 0x00, 0x00, 0x00,
  0x20, 0x00, 0x00, 0x00, 0x20, 0x00, 0x00, 0x00, 0x01, 0x00, 0x00, 0x00,
  0x3c, 0x00, 0x00, 0x00, 0x02, 0x00, 0x00, 0x00, 0xff, 0xff, 0xff, 0xff,
  0x3c, 0x00, 0x00, 0x00, 0x04, 0x00, 0x04, 0x00, 0x04, 0x00, 0x00, 0x00,
  0x1e, 0x00, 0x00, 0x00, 0x73, 0x65, 0x72, 0x76, 0x69, 0x6e, 0x67, 0x5f,
  0x64, 0x65, 0x66, 0x61, 0x75, 0x6c, 0x74, 0x5f, 0x6b, 0x65, 0x72, 0x61,
  0x73, 0x5f, 0x74, 0x65, 0x6e, 0x73, 0x6f, 0x72, 0x3a, 0x30, 0x00, 0x00,
  0x02, 0x00, 0x00, 0x00, 0x01, 0x00, 0x00, 0x00, 0x3c, 0x00, 0x00, 0x00,
  0x01, 0x00, 0x00, 0x00, 0x10, 0x00, 0x00, 0x00, 0x0c, 0x00, 0x0c, 0x00,
  0x0b, 0x00, 0x00, 0x00, 0x00, 0x00, 0x04, 0x00, 0x0c, 0x00, 0x00, 0x00,
  0x09, 0x00, 0x00, 0x00, 0x00, 0x00, 0x00, 0x09
};
unsigned int autoencoder_temperatura_float_tflite_len = 11408;
